{
  "version": "1.0",
  "truncation": {
    "direction": "Right",
    "max_length": 32,
    "strategy": "LongestFirst",
    "stride": 0
  },
  "padding": {
    "strategy": {
      "Fixed": 32
    },
    "direction": "Right",
    "pad_to_multiple_of": null,
    "pad_id": 0,
    "pad_type_id": 0,
    "pad_token": "<PAD>"
  },
  "added_tokens": [
    {
      "id": 0,
      "content": "<PAD>",
      "single_word": false,
      "lstrip": false,
      "rstrip": false,
      "normalized": false,
      "special": true
    },
    {
      "id": 1,
      "content": "<UNK>",
      "single_word": false,
      "lstrip": false,
      "rstrip": false,
      "normalized": false,
      "special": true
    },
    {
      "id": 2,
      "content": "<CLS>",
      "single_word": false,
      "lstrip": false,
      "rstrip": false,
      "normalized": false,
      "special": true
    },
    {
      "id": 3,
      "content": "<SEP>",
      "single_word": false,
      "lstrip": false,
      "rstrip": false,
      "normalized": false,
      "special": true
    },
    {
      "id": 4,
      "content": "<MASK>",
      "single_word": false,
      "lstrip": false,
      "rstrip": false,
      "normalized": false,
      "special": true
    }
  ],
  "normalizer": {
    "type": "NFKC"
  },
  "pre_tokenizer": {
    "type": "Whitespace"
  },
  "post_processor": {
    "type": "TemplateProcessing",
    "single": [
      {
        "SpecialToken": {
          "id": "<CLS>",
          "type_id": 0
        }
      },
      {
        "Sequence": {
          "id": "A",
          "type_id": 0
        }
      },
      {
        "SpecialToken": {
          "id": "<SEP>",
          "type_id": 0
        }
      }
    ],
    "pair": [
      {
        "SpecialToken": {
          "id": "<CLS>",
          "type_id": 0
        }
      },
      {
        "Sequence": {
          "id": "A",
          "type_id": 0
        }
      },
      {
        "SpecialToken": {
          "id": "<SEP>",
          "type_id": 0
        }
      },
      {
        "Sequence": {
          "id": "B",
          "type_id": 1
        }
      },
      {
        "SpecialToken": {
          "id": "<SEP>",
          "type_id": 1
        }
      }
    ],
    "special_tokens": {
      "<CLS>": {
        "id": "<CLS>",
        "ids": [
          2
        ],
        "tokens": [
          "<CLS>"
        ]
      },
      "<SEP>": {
        "id": "<SEP>",
        "ids": [
          3
        ],
        "tokens": [
          "<SEP>"
        ]
      }
    }
  },
  "decoder": null,
  "model": {
    "type": "BPE",
    "dropout": null,
    "unk_token": "<UNK>",
    "continuing_subword_prefix": null,
    "end_of_word_suffix": null,
    "fuse_unk": false,
    "byte_fallback": false,
    "ignore_merges": false,
    "vocab": {
      "<PAD>": 0,
      "<UNK>": 1,
      "<CLS>": 2,
      "<SEP>": 3,
      "<MASK>": 4,
      "0": 5,
      "1": 6,
      "2": 7,
      "3": 8,
      "4": 9,
      "5": 10,
      "6": 11,
      "7": 12,
      "8": 13,
      "9": 14,
      "a": 15,
      "b": 16,
      "c": 17,
      "d": 18,
      "e": 19,
      "f": 20,
      "g": 21,
      "h": 22,
      "i": 23,
      "j": 24,
      "k": 25,
      "l": 26,
      "m": 27,
      "n": 28,
      "o": 29,
      "p": 30,
      "q": 31,
      "r": 32,
      "s": 33,
      "t": 34,
      "u": 35,
      "v": 36,
      "w": 37,
      "x": 38,
      "y": 39,
      "z": 40,
      "th": 41,
      "in": 42,
      "er": 43,
      "an": 44,
      "re": 45,
      "on": 46,
      "the": 47,
      "at": 48,
      "st": 49,
      "ou": 50,
      "en": 51,
      "or": 52,
      "ing": 53,
      "al": 54,
      "to": 55,
      "es": 56,
      "ar": 57,
      "is": 58,
      "ed": 59,
      "it": 60,
      "and": 61,
      "of": 62,
      "as": 63,
      "le": 64,
      "ic": 65,
      "om": 66,
      "ch": 67,
      "il": 68,
      "se": 69,
      "be": 70,
      "ion": 71,
      "ve": 72,
      "ho": 73,
      "ay": 74,
      "ac": 75,
      "id": 76,
      "for": 77,
      "you": 78,
      "ent": 79,
      "am": 80,
      "ly": 81,
      "ad": 82,
      "ro": 83,
      "li": 84,
      "wh": 85,
      "lo": 86,
      "we": 87,
      "ne": 88,
      "no": 89,
      "im": 90,
      "tr": 91,
      "ge": 92,
      "are": 93,
      "ver": 94,
      "ig": 95,
      "mo": 96,
      "ir": 97,
      "ol": 98,
      "he": 99,
      "de": 100,
      "ter": 101,
      "un": 102,
      "us": 103,
      "ab": 104,
      "ke": 105,
      "that": 106,
      "ut": 107,
      "wi": 108,
      "ce": 109,
      "out": 110,
      "ur": 111,
      "pe": 112,
      "ers": 113,
      "with": 114,
      "ts": 115,
      "um": 116,
      "res": 117,
      "ill": 118,
      "ha": 119,
      "fe": 120,
      "fr": 121,
      "ld": 122,
      "ation": 123,
      "con": 124,
      "po": 125,
      "te": 126,
      "all": 127,
      "com": 128,
      "ul": 129,
      "do": 130,
      "ate": 131,
      "go": 132,
      "ther": 133,
      "ct": 134,
      "our": 135,
      "up": 136,
      "me": 137,
      "ess": 138,
      "one": 139,
      "op": 140,
      "ma": 141,
      "your": 142,
      "this": 143,
      "igh": 144,
      "ant": 145,
      "if": 146,
      "wor": 147,
      "la": 148,
      "ist": 149,
      "pro": 150,
      "ex": 151,
      "how": 152,
      "ap": 153,
      "art": 154,
      "sh": 155,
      "new": 156,
      "ome": 157,
      "ie": 158,
      "its": 159,
      "ag": 160,
      "oun": 161,
      "bo": 162,
      "end": 163,
      "my": 164,
      "her": 165,
      "pl": 166,
      "ust": 167,
      "not": 168,
      "gh": 169,
      "from": 170,
      "ta": 171,
      "co": 172,
      "iv": 173,
      "was": 174,
      "day": 175,
      "ity": 176,
      "have": 177,
      "pr": 178,
      "ies": 179,
      "so": 180,
      "ive": 181,
      "ack": 182,
      "but": 183,
      "ye": 184,
      "ide": 185,
      "ould": 186,
      "can": 187,
      "ump": 188,
      "br": 189,
      "ok": 190,
      "ans": 191,
      "tim": 192,
      "about": 193,
      "su": 194,
      "ment": 195,
      "what": 196,
      "qu": 197,
      "ind": 198,
      "ll": 199,
      "cr": 200,
      "od": 201,
      "trump": 202,
      "af": 203,
      "man": 204,
      "ight": 205,
      "act": 206,
      "by": 207,
      "por": 208,
      "ally": 209,
      "bl": 210,
      "now": 211,
      "more": 212,
      "way": 213,
      "ard": 214,
      "nt": 215,
      "ip": 216,
      "per": 217,
      "gr": 218,
      "thing": 219,
      "don": 220,
      "has": 221,
      "fo": 222,
      "sa": 223,
      "some": 224,
      "king": 225,
      "ia": 226,
      "ere": 227,
      "who": 228,
      "year": 229,
      "ain": 230,
      "el": 231,
      "ast": 232,
      "wn": 233,
      "will": 234,
      "ks": 235,
      "ud": 236,
      "ine": 237,
      "ous": 238,
      "ice": 239,
      "pres": 240,
      "ial": 241,
      "get": 242,
      "pho": 243,
      "ep": 244,
      "sp": 245,
      "photo": 246,
      "mar": 247,
      "when": 248,
      "they": 249,
      "his": 250,
      "cl": 251,
      "ace": 252,
      "just": 253,
      "ting": 254,
      "red": 255,
      "ough": 256,
      "very": 257,
      "au": 258,
      "der": 259,
      "wee": 260,
      "their": 261,
      "em": 262,
      "off": 263,
      "20": 264,
      "ong": 265,
      "like": 266,
      "ound": 267,
      "say": 268,
      "ber": 269,
      "time": 270,
      "ck": 271,
      "dis": 272,
      "iz": 273,
      "over": 274,
      "ions": 275,
      "port": 276,
      "peop": 277,
      "than": 278,
      "after": 279,
      "ev": 280,
      "ite": 281,
      "ach": 282,
      "people": 283,
      "cre": 284,
      "age": 285,
      "ass": 286,
      "jo": 287,
      "dr": 288,
      "av": 289,
      "amer": 290,
      "ild": 291,
      "ary": 292,
      "pol": 293,
      "ence": 294,
      "photos": 295,
      "ident": 296,
      "ure": 297,
      "most": 298,
      "ress": 299,
      "pre": 300,
      "str": 301,
      "ful": 302,
      "wom": 303,
      "ian": 304,
      "americ": 305,
      "ty": 306,
      "sel": 307,
      "know": 308,
      "mon": 309,
      "life": 310,
      "low": 311,
      "ens": 312,
      "part": 313,
      "ign": 314,
      "ame": 315,
      "tw": 316,
      "col": 317,
      "ree": 318,
      "fir": 319,
      "make": 320,
      "able": 321,
      "est": 322,
      "cho": 323,
      "sc": 324,
      "inter": 325,
      "alth": 326,
      "every": 327,
      "ren": 328,
      "may": 329,
      "int": 330,
      "med": 331,
      "hel": 332,
      "world": 333,
      "look": 334,
      "were": 335,
      "gu": 336,
      "ins": 337,
      "other": 338,
      "pp": 339,
      "any": 340,
      "ak": 341,
      "ning": 342,
      "sup": 343,
      "att": 344,
      "ick": 345,
      "ile": 346,
      "week": 347,
      "chan": 348,
      "need": 349,
      "ire": 350,
      "why": 351,
      "201": 352,
      "there": 353,
      "ated": 354,
      "ib": 355,
      "ors": 356,
      "pu": 357,
      "work": 358,
      "back": 359,
      "show": 360,
      "ons": 361,
      "been": 362,
      "health": 363,
      "vide": 364,
      "ser": 365,
      "cor": 366,
      "child": 367,
      "she": 368,
      "ath": 369,
      "ff": 370,
      "first": 371,
      "ple": 372,
      "ob": 373,
      "pare": 374,
      "ish": 375,
      "ash": 376,
      "want": 377,
      "ical": 378,
      "ry": 379,
      "ink": 380,
      "00": 381,
      "ating": 382,
      "vo": 383,
      "old": 384,
      "cent": 385,
      "president": 386,
      "into": 387,
      "mer": 388,
      "ates": 389,
      "reat": 390,
      "coun": 391,
      "ss": 392,
      "video": 393,
      "ations": 394,
      "dont": 395,
      "ily": 396,
      "said": 397,
      "ave": 398,
      "ory": 399,
      "ves": 400,
      "ald": 401,
      "would": 402,
      "these": 403,
      "car": 404,
      "ious": 405,
      "ving": 406,
      "could": 407,
      "ding": 408,
      "them": 409,
      "years": 410,
      "vers": 411,
      "bet": 412,
      "read": 413,
      "ich": 414,
      "help": 415,
      "best": 416,
      "min": 417,
      "ade": 418,
      "publ": 419,
      "tur": 420,
      "sho": 421,
      "come": 422,
      "che": 423,
      "self": 424,
      "mom": 425,
      "fam": 426,
      "ways": 427,
      "ance": 428,
      "should": 429,
      "ys": 430,
      "less": 431,
      "ue": 432,
      "air": 433,
      "love": 434,
      "spe": 435,
      "see": 436,
      "donald": 437,
      "had": 438,
      "ase": 439,
      "cer": 440,
      "bre": 441,
      "post": 442,
      "wat": 443,
      "stud": 444,
      "kid": 445,
      "ra": 446,
      "ger": 447,
      "sur": 448,
      "des": 449,
      "says": 450,
      "ction": 451,
      "ps": 452,
      "call": 453,
      "tal": 454,
      "cau": 455,
      "ents": 456,
      "even": 457,
      "many": 458,
      "ise": 459,
      "fore": 460,
      "fl": 461,
      "war": 462,
      "leg": 463,
      "public": 464,
      "happ": 465,
      "par": 466,
      "again": 467,
      "try": 468,
      "home": 469,
      "ph": 470,
      "aw": 471,
      "good": 472,
      "mu": 473,
      "wed": 474,
      "ted": 475,
      "fin": 476,
      "ls": 477,
      "being": 478,
      "sing": 479,
      "down": 480,
      "cess": 481,
      "real": 482,
      "women": 483,
      "uc": 484,
      "mis": 485,
      "hu": 486,
      "does": 487,
      "als": 488,
      "ama": 489,
      "let": 490,
      "wer": 491,
      "vie": 492,
      "les": 493,
      "fer": 494,
      "ann": 495,
      "last": 496,
      "lear": 497,
      "cont": 498,
      "thr": 499,
      "take": 500,
      "find": 501,
      "kes": 502,
      "je": 503,
      "io": 504,
      "anc": 505,
      "ied": 506,
      "big": 507,
      "star": 508,
      "row": 509,
      "ouse": 510,
      "cause": 511,
      "ters": 512,
      "did": 513,
      "pa": 514,
      "sen": 515,
      "law": 516,
      "under": 517,
      "where": 518,
      "ult": 519,
      "care": 520,
      "itt": 521,
      "things": 522,
      "two": 523,
      "land": 524,
      "enc": 525,
      "sty": 526,
      "ict": 527,
      "ner": 528,
      "ose": 529,
      "ness": 530,
      "ail": 531,
      "ste": 532,
      "long": 533,
      "pers": 534,
      "book": 535,
      "wr": 536,
      "ual": 537,
      "kids": 538,
      "face": 539,
      "only": 540,
      "ef": 541,
      "bu": 542,
      "play": 543,
      "ms": 544,
      "feel": 545,
      "while": 546,
      "sy": 547,
      "house": 548,
      "ition": 549,
      "think": 550,
      "own": 551,
      "comm": 552,
      "10": 553,
      "nation": 554,
      "here": 555,
      "ities": 556,
      "well": 557,
      "cur": 558,
      "ants": 559,
      "lead": 560,
      "cus": 561,
      "log": 562,
      "mat": 563,
      "fun": 564,
      "bab": 565,
      "food": 566,
      "ele": 567,
      "test": 568,
      "still": 569,
      "too": 570,
      "cour": 571,
      "cal": 572,
      "mor": 573,
      "much": 574,
      "ds": 575,
      "right": 576,
      "state": 577,
      "chool": 578,
      "pos": 579,
      "because": 580,
      "trumps": 581,
      "fect": 582,
      "iend": 583,
      "high": 584,
      "nor": 585,
      "bro": 586,
      "char": 587,
      "lim": 588,
      "friend": 589,
      "ton": 590,
      "school": 591,
      "soc": 592,
      "ason": 593,
      "children": 594,
      "through": 595,
      "sex": 596,
      "chr": 597,
      "vis": 598,
      "won": 599,
      "really": 600,
      "list": 601,
      "ligh": 602,
      "which": 603,
      "hol": 604,
      "stand": 605,
      "pt": 606,
      "pect": 607,
      "dy": 608,
      "turn": 609,
      "cut": 610,
      "before": 611,
      "news": 612,
      "ics": 613,
      "family": 614,
      "comp": 615,
      "gen": 616,
      "dec": 617,
      "exper": 618,
      "never": 619,
      "bill": 620,
      "ble": 621,
      "youre": 622,
      "ved": 623,
      "ug": 624,
      "cele": 625,
      "clo": 626,
      "black": 627,
      "giv": 628,
      "mus": 629,
      "made": 630,
      "har": 631,
      "him": 632,
      "also": 633,
      "cam": 634,
      "uring": 635,
      "style": 636,
      "head": 637,
      "aut": 638,
      "days": 639,
      "plan": 640,
      "kill": 641,
      "watch": 642,
      "ars": 643,
      "use": 644,
      "put": 645,
      "mind": 646,
      "bus": 647,
      "ible": 648,
      "got": 649,
      "div": 650,
      "ists": 651,
      "sum": 652,
      "form": 653,
      "ines": 654,
      "wedding": 655,
      "eng": 656,
      "ings": 657,
      "ten": 658,
      "iday": 659,
      "change": 660,
      "person": 661,
      "great": 662,
      "sure": 663,
      "those": 664,
      "huff": 665,
      "sm": 666,
      "dif": 667,
      "white": 668,
      "going": 669,
      "start": 670,
      "ever": 671,
      "reg": 672,
      "ism": 673,
      "ban": 674,
      "set": 675,
      "litt": 676,
      "exp": 677,
      "ips": 678,
      "mill": 679,
      "men": 680,
      "little": 681,
      "du": 682,
      "times": 683,
      "trave": 684,
      "line": 685,
      "power": 686,
      "celebr": 687,
      "american": 688,
      "ative": 689,
      "et": 690,
      "keep": 691,
      "rel": 692,
      "son": 693,
      "rest": 694,
      "vi": 695,
      "arch": 696,
      "though": 697,
      "gir": 698,
      "trans": 699,
      "paren": 700,
      "better": 701,
      "sim": 702,
      "tain": 703,
      "az": 704,
      "national": 705,
      "ling": 706,
      "republic": 707,
      "top": 708,
      "view": 709,
      "demo": 710,
      "ear": 711,
      "bar": 712,
      "quest": 713,
      "ot": 714,
      "ward": 715,
      "against": 716,
      "gest": 717,
      "report": 718,
      "led": 719,
      "thers": 720,
      "dress": 721,
      "ask": 722,
      "step": 723,
      "mem": 724,
      "iness": 725,
      "vent": 726,
      "ince": 727,
      "ience": 728,
      "win": 729,
      "offic": 730,
      "democr": 731,
      "marr": 732,
      "run": 733,
      "ster": 734,
      "fil": 735,
      "during": 736,
      "polit": 737,
      "ore": 738,
      "something": 739,
      "ale": 740,
      "night": 741,
      "stop": 742,
      "ween": 743,
      "gress": 744,
      "xt": 745,
      "ca": 746,
      "wa": 747,
      "lie": 748,
      "ually": 749,
      "tion": 750,
      "itter": 751,
      "around": 752,
      "ney": 753,
      "ats": 754,
      "tell": 755,
      "found": 756,
      "month": 757,
      "ju": 758,
      "yor": 759,
      "miss": 760,
      "ris": 761,
      "que": 762,
      "pat": 763,
      "lot": 764,
      "ited": 765,
      "ix": 766,
      "net": 767,
      "hum": 768,
      "ones": 769,
      "parents": 770,
      "live": 771,
      "di": 772,
      "19": 773,
      "wal": 774,
      "huffpost": 775,
      "city": 776,
      "rus": 777,
      "colle": 778,
      "ames": 779,
      "cover": 780,
      "hist": 781,
      "sk": 782,
      "divor": 783,
      "fall": 784,
      "late": 785,
      "ments": 786,
      "gan": 787,
      "ier": 788,
      "den": 789,
      "eas": 790,
      "press": 791,
      "ams": 792,
      "york": 793,
      "bur": 794,
      "bor": 795,
      "gy": 796,
      "cant": 797,
      "place": 798,
      "sou": 799,
      "ital": 800,
      "clint": 801,
      "beaut": 802,
      "gover": 803,
      "study": 804,
      "bal": 805,
      "hill": 806,
      "sle": 807,
      "pot": 808,
      "comes": 809,
      "resp": 810,
      "val": 811,
      "bs": 812,
      "ize": 813,
      "woman": 814,
      "doesnt": 815,
      "search": 816,
      "another": 817,
      "hand": 818,
      "check": 819,
      "police": 820,
      "ci": 821,
      "differ": 822,
      "obama": 823,
      "might": 824,
      "light": 825,
      "cons": 826,
      "open": 827,
      "twitter": 828,
      "fash": 829,
      "ina": 830,
      "travel": 831,
      "cap": 832,
      "fa": 833,
      "mic": 834,
      "christ": 835,
      "ref": 836,
      "coming": 837,
      "ights": 838,
      "ned": 839,
      "ood": 840,
      "death": 841,
      "ready": 842,
      "olut": 843,
      "ped": 844,
      "then": 845,
      "hard": 846,
      "room": 847,
      "far": 848,
      "oney": 849,
      "cla": 850,
      "sign": 851,
      "heart": 852,
      "heres": 853,
      "ular": 854,
      "gl": 855,
      "body": 856,
      "fashion": 857,
      "parent": 858,
      "attack": 859,
      "vir": 860,
      "gre": 861,
      "next": 862,
      "bt": 863,
      "da": 864,
      "inst": 865,
      "getting": 866,
      "uni": 867,
      "super": 868,
      "theres": 869,
      "america": 870,
      "ures": 871,
      "without": 872,
      "gop": 873,
      "fol": 874,
      "always": 875,
      "import": 876,
      "ny": 877,
      "making": 878,
      "secre": 879,
      "bir": 880,
      "pay": 881,
      "ship": 882,
      "former": 883,
      "ged": 884,
      "ility": 885,
      "few": 886,
      "commun": 887,
      "tre": 888,
      "gay": 889,
      "hes": 890,
      "used": 891,
      "ues": 892,
      "cond": 893,
      "cou": 894,
      "ient": 895,
      "ah": 896,
      "bas": 897,
      "yearold": 898,
      "appe": 899,
      "mp": 900,
      "thats": 901,
      "season": 902,
      "seem": 903,
      "vice": 904,
      "clinton": 905,
      "tru": 906,
      "os": 907,
      "free": 908,
      "cle": 909,
      "sleep": 910,
      "hn": 911,
      "hal": 912,
      "past": 913,
      "sand": 914,
      "del": 915,
      "ired": 916,
      "bad": 917,
      "dead": 918,
      "side": 919,
      "share": 920,
      "divorce": 921,
      "fac": 922,
      "gn": 923,
      "ken": 924,
      "eral": 925,
      "dan": 926,
      "give": 927,
      "mil": 928,
      "paign": 929,
      "pass": 930,
      "campaign": 931,
      "story": 932,
      "holiday": 933,
      "court": 934,
      "ces": 935,
      "country": 936,
      "ging": 937,
      "states": 938,
      "incl": 939,
      "between": 940,
      "since": 941,
      "ket": 942,
      "spir": 943,
      "move": 944,
      "ort": 945,
      "youn": 946,
      "vest": 947,
      "interest": 948,
      "ange": 949,
      "whe": 950,
      "fort": 951,
      "sun": 952,
      "gun": 953,
      "didnt": 954,
      "ven": 955,
      "three": 956,
      "summer": 957,
      "lives": 958,
      "recent": 959,
      "john": 960,
      "spec": 961,
      "ges": 962,
      "isnt": 963,
      "ized": 964,
      "break": 965,
      "ians": 966,
      "facebook": 967,
      "fight": 968,
      "ben": 969,
      "issu": 970,
      "ross": 971,
      "baby": 972,
      "contro": 973,
      "prom": 974,
      "nat": 975,
      "away": 976,
      "dire": 977,
      "perfect": 978,
      "mid": 979,
      "fav": 980,
      "augh": 981,
      "proble": 982,
      "ices": 983,
      "ides": 984,
      "teach": 985,
      "mean": 986,
      "americans": 987,
      "ond": 988,
      "ru": 989,
      "ft": 990,
      "jor": 991,
      "iting": 992,
      "claim": 993,
      "party": 994,
      "def": 995,
      "today": 996,
      "makes": 997,
      "suc": 998,
      "shows": 999,
      "blo": 1000,
      "invest": 1001,
      "istr": 1002,
      "mas": 1003,
      "business": 1004,
      "sl": 1005,
      "million": 1006,
      "ago": 1007,
      "prof": 1008,
      "itch": 1009,
      "clim": 1010,
      "grou": 1011,
      "cand": 1012,
      "important": 1013,
      "host": 1014,
      "hing": 1015,
      "key": 1016,
      "iage": 1017,
      "each": 1018,
      "unch": 1019,
      "ific": 1020,
      "must": 1021,
      "pop": 1022,
      "ced": 1023,
      "uck": 1024,
      "gets": 1025,
      "pris": 1026,
      "stor": 1027,
      "hold": 1028,
      "poss": 1029,
      "atic": 1030,
      "dre": 1031,
      "favor": 1032,
      "follow": 1033,
      "media": 1034,
      "add": 1035,
      "social": 1036,
      "money": 1037,
      "ages": 1038,
      "ards": 1039,
      "talk": 1040,
      "class": 1041,
      "often": 1042,
      "ider": 1043,
      "mother": 1044,
      "cts": 1045,
      "marriage": 1046,
      "govern": 1047,
      "human": 1048,
      "lar": 1049,
      "acy": 1050,
      "ball": 1051,
      "hillary": 1052,
      "lat": 1053,
      "contin": 1054,
      "happen": 1055,
      "secret": 1056,
      "grow": 1057,
      "deal": 1058,
      "dog": 1059,
      "viol": 1060,
      "cancer": 1061,
      "russ": 1062,
      "terr": 1063,
      "research": 1064,
      "chall": 1065,
      "daugh": 1066,
      "fact": 1067,
      "both": 1068,
      "ying": 1069,
      "pet": 1070,
      "support": 1071,
      "aring": 1072,
      "stress": 1073,
      "history": 1074,
      "unt": 1075,
      "congress": 1076,
      "ctor": 1077,
      "jour": 1078,
      "dad": 1079,
      "young": 1080,
      "cept": 1081,
      "once": 1082,
      "game": 1083,
      "ping": 1084,
      "ret": 1085,
      "kind": 1086,
      "yes": 1087,
      "ric": 1088,
      "giving": 1089,
      "came": 1090,
      "tips": 1091,
      "glo": 1092,
      "wont": 1093,
      "different": 1094,
      "ending": 1095,
      "die": 1096,
      "og": 1097,
      "fed": 1098,
      "become": 1099,
      "film": 1100,
      "ator": 1101,
      "sug": 1102,
      "same": 1103,
      "inc": 1104,
      "relation": 1105,
      "gin": 1106,
      "sn": 1107,
      "spr": 1108,
      "ports": 1109,
      "near": 1110,
      "yet": 1111,
      "jud": 1112,
      "election": 1113,
      "girl": 1114,
      "whether": 1115,
      "shoo": 1116,
      "friends": 1117,
      "point": 1118,
      "dest": 1119,
      "healthy": 1120,
      "enough": 1121,
      "bi": 1122,
      "oc": 1123,
      "actually": 1124,
      "called": 1125,
      "gif": 1126,
      "ns": 1127,
      "reve": 1128,
      "cost": 1129,
      "design": 1130,
      "emp": 1131,
      "din": 1132,
      "member": 1133,
      "climate": 1134,
      "having": 1135,
      "told": 1136,
      "crim": 1137,
      "fut": 1138,
      "qual": 1139,
      "water": 1140,
      "tax": 1141,
      "sal": 1142,
      "fail": 1143,
      "yourself": 1144,
      "mc": 1145,
      "case": 1146,
      "mess": 1147,
      "cy": 1148,
      "mag": 1149,
      "ram": 1150,
      "conne": 1151,
      "music": 1152,
      "crit": 1153,
      "band": 1154,
      "living": 1155,
      "hope": 1156,
      "prote": 1157,
      "four": 1158,
      "ker": 1159,
      "sit": 1160,
      "isis": 1161,
      "moment": 1162,
      "twee": 1163,
      "ives": 1164,
      "rele": 1165,
      "inv": 1166,
      "ender": 1167,
      "appro": 1168,
      "tech": 1169,
      "success": 1170,
      "easy": 1171,
      "fire": 1172,
      "mig": 1173,
      "enn": 1174,
      "birth": 1175,
      "ane": 1176,
      "edly": 1177,
      "major": 1178,
      "grap": 1179,
      "mi": 1180,
      "pain": 1181,
      "sco": 1182,
      "selves": 1183,
      "ri": 1184,
      "cu": 1185,
      "cted": 1186,
      "deb": 1187,
      "future": 1188,
      "lieve": 1189,
      "wants": 1190,
      "others": 1191,
      "thin": 1192,
      "cording": 1193,
      "rac": 1194,
      "num": 1195,
      "doing": 1196,
      "wood": 1197,
      "order": 1198,
      "tt": 1199,
      "tem": 1200,
      "rights": 1201,
      "migr": 1202,
      "ief": 1203,
      "official": 1204,
      "fit": 1205,
      "everyone": 1206,
      "toge": 1207,
      "ically": 1208,
      "taking": 1209,
      "least": 1210,
      "five": 1211,
      "sus": 1212,
      "happy": 1213,
      "together": 1214,
      "sw": 1215,
      "hair": 1216,
      "ark": 1217,
      "expect": 1218,
      "believe": 1219,
      "action": 1220,
      "fre": 1221,
      "mal": 1222,
      "everything": 1223,
      "11": 1224,
      "protest": 1225,
      "tel": 1226,
      "stay": 1227,
      "fear": 1228,
      "question": 1229,
      "educ": 1230,
      "republican": 1231,
      "lig": 1232,
      "bers": 1233,
      "hind": 1234,
      "cat": 1235,
      "thought": 1236,
      "looking": 1237,
      "tv": 1238,
      "cook": 1239,
      "theyre": 1240,
      "favorite": 1241,
      "fast": 1242,
      "ional": 1243,
      "full": 1244,
      "hun": 1245,
      "vac": 1246,
      "college": 1247,
      "econ": 1248,
      "according": 1249,
      "15": 1250,
      "ils": 1251,
      "econom": 1252,
      "ba": 1253,
      "personal": 1254,
      "sat": 1255,
      "job": 1256,
      "ends": 1257,
      "sexual": 1258,
      "ham": 1259,
      "weight": 1260,
      "working": 1261,
      "political": 1262,
      "nal": 1263,
      "stree": 1264,
      "safe": 1265,
      "using": 1266,
      "present": 1267,
      "bey": 1268,
      "roll": 1269,
      "2012": 1270,
      "cru": 1271,
      "san": 1272,
      "alleg": 1273,
      "boy": 1274,
      "joy": 1275,
      "stem": 1276,
      "lets": 1277,
      "activ": 1278,
      "government": 1279,
      "candid": 1280,
      "pur": 1281,
      "bring": 1282,
      "west": 1283,
      "aff": 1284,
      "someone": 1285,
      "leaders": 1286,
      "vic": 1287,
      "morning": 1288,
      "experience": 1289,
      "wel": 1290,
      "treat": 1291,
      "abor": 1292,
      "wrong": 1293,
      "eu": 1294,
      "cast": 1295,
      "spo": 1296,
      "north": 1297,
      "republicans": 1298,
      "nie": 1299,
      "threat": 1300,
      "hor": 1301,
      "eat": 1302,
      "asons": 1303,
      "pract": 1304,
      "12": 1305,
      "polic": 1306,
      "behind": 1307,
      "ency": 1308,
      "whats": 1309,
      "pret": 1310,
      "sha": 1311,
      "second": 1312,
      "students": 1313,
      "ands": 1314,
      "includ": 1315,
      "matter": 1316,
      "shooting": 1317,
      "amaz": 1318,
      "ley": 1319,
      "takes": 1320,
      "hour": 1321,
      "percent": 1322,
      "small": 1323,
      "understand": 1324,
      "hon": 1325,
      "tra": 1326,
      "consider": 1327,
      "ather": 1328,
      "hit": 1329,
      "beauty": 1330,
      "ith": 1331,
      "looks": 1332,
      "build": 1333,
      "los": 1334,
      "girls": 1335,
      "cop": 1336,
      "round": 1337,
      "nothing": 1338,
      "brea": 1339,
      "ler": 1340,
      "comple": 1341,
      "such": 1342,
      "hy": 1343,
      "fron": 1344,
      "mark": 1345,
      "gbt": 1346,
      "iety": 1347,
      "hur": 1348,
      "ination": 1349,
      "lost": 1350,
      "organ": 1351,
      "pus": 1352,
      "ival": 1353,
      "bed": 1354,
      "nom": 1355,
      "aged": 1356,
      "weeks": 1357,
      "mental": 1358,
      "rul": 1359,
      "cum": 1360,
      "clear": 1361,
      "ctions": 1362,
      "needs": 1363,
      "thanks": 1364,
      "tour": 1365,
      "ury": 1366,
      "worth": 1367,
      "versity": 1368,
      "cali": 1369,
      "daughter": 1370,
      "decis": 1371,
      "wall": 1372,
      "teen": 1373,
      "already": 1374,
      "dro": 1375,
      "hood": 1376,
      "community": 1377,
      "forn": 1378,
      "gener": 1379,
      "100": 1380,
      "inste": 1381,
      "wil": 1382,
      "trying": 1383,
      "californ": 1384,
      "group": 1385,
      "cas": 1386,
      "iously": 1387,
      "sch": 1388,
      "company": 1389,
      "washing": 1390,
      "possible": 1391,
      "gender": 1392,
      "town": 1393,
      "serv": 1394,
      "logy": 1395,
      "drug": 1396,
      "olution": 1397,
      "emo": 1398,
      "true": 1399,
      "color": 1400,
      "united": 1401,
      "kers": 1402,
      "movie": 1403,
      "calls": 1404,
      "team": 1405,
      "remember": 1406,
      "hot": 1407,
      "vin": 1408,
      "ming": 1409,
      "sub": 1410,
      "weekend": 1411,
      "obam": 1412,
      "name": 1413,
      "tri": 1414,
      "ended": 1415,
      "2013": 1416,
      "ject": 1417,
      "wonder": 1418,
      "incre": 1419,
      "thor": 1420,
      "weve": 1421,
      "ately": 1422,
      "sometimes": 1423,
      "months": 1424,
      "ude": 1425,
      "ences": 1426,
      "na": 1427,
      "produ": 1428,
      "took": 1429,
      "anim": 1430,
      "poll": 1431,
      "hear": 1432,
      "main": 1433,
      "risk": 1434,
      "lain": 1435,
      "system": 1436,
      "simple": 1437,
      "aid": 1438,
      "announ": 1439,
      "supre": 1440,
      "gold": 1441,
      "flo": 1442,
      "lon": 1443,
      "conf": 1444,
      "bul": 1445,
      "hom": 1446,
      "surv": 1447,
      "kim": 1448,
      "tex": 1449,
      "road": 1450,
      "likely": 1451,
      "rec": 1452,
      "reasons": 1453,
      "itive": 1454,
      "ering": 1455,
      "allow": 1456,
      "velo": 1457,
      "office": 1458,
      "famil": 1459,
      "sil": 1460,
      "ang": 1461,
      "secur": 1462,
      "accus": 1463,
      "plac": 1464,
      "presidential": 1465,
      "certain": 1466,
      "problem": 1467,
      "iful": 1468,
      "iter": 1469,
      "afr": 1470,
      "mass": 1471,
      "south": 1472,
      "lin": 1473,
      "ased": 1474,
      "immigr": 1475,
      "common": 1476,
      "ples": 1477,
      "suggest": 1478,
      "lies": 1479,
      "ustr": 1480,
      "guide": 1481,
      "means": 1482,
      "fully": 1483,
      "special": 1484,
      "lgbt": 1485,
      "met": 1486,
      "ank": 1487,
      "vote": 1488,
      "learn": 1489,
      "iss": 1490,
      "duc": 1491,
      "spring": 1492,
      "bit": 1493,
      "prim": 1494,
      "50": 1495,
      "pal": 1496,
      "left": 1497,
      "daily": 1498,
      "lines": 1499,
      "ention": 1500,
      "oly": 1501,
      "senate": 1502,
      "reason": 1503,
      "dav": 1504,
      "ared": 1505,
      "investig": 1506,
      "cult": 1507,
      "ults": 1508,
      "midd": 1509,
      "imp": 1510,
      "democrats": 1511,
      "bow": 1512,
      "focus": 1513,
      "tar": 1514,
      "race": 1515,
      "grand": 1516,
      "sol": 1517,
      "develo": 1518,
      "friday": 1519,
      "beautiful": 1520,
      "dep": 1521,
      "seen": 1522,
      "killed": 1523,
      "latest": 1524,
      "security": 1525,
      "ought": 1526,
      "trad": 1527,
      "dou": 1528,
      "priv": 1529,
      "short": 1530,
      "single": 1531,
      "arent": 1532,
      "ential": 1533,
      "christmas": 1534,
      "2014": 1535,
      "ias": 1536,
      "train": 1537,
      "xic": 1538,
      "education": 1539,
      "wear": 1540,
      "finally": 1541,
      "youve": 1542,
      "trip": 1543,
      "olymp": 1544,
      "fest": 1545,
      "relationship": 1546,
      "non": 1547,
      "recor": 1548,
      "count": 1549,
      "words": 1550,
      "idea": 1551,
      "known": 1552,
      "ply": 1553,
      "bel": 1554,
      "washington": 1555,
      "fla": 1556,
      "kr": 1557,
      "concer": 1558,
      "probab": 1559,
      "dam": 1560,
      "close": 1561,
      "asked": 1562,
      "series": 1563,
      "ema": 1564,
      "tom": 1565,
      "violence": 1566,
      "justice": 1567,
      "ugh": 1568,
      "minut": 1569,
      "fel": 1570,
      "dream": 1571,
      "probably": 1572,
      "ipes": 1573,
      "ished": 1574,
      "finds": 1575,
      "ided": 1576,
      "california": 1577,
      "flu": 1578,
      "rich": 1579,
      "hus": 1580,
      "male": 1581,
      "milit": 1582,
      "strong": 1583,
      "pes": 1584,
      "street": 1585,
      "rent": 1586,
      "across": 1587,
      "youll": 1588,
      "ugg": 1589,
      "nes": 1590,
      "suit": 1591,
      "almost": 1592,
      "feat": 1593,
      "lad": 1594,
      "ounds": 1595,
      "ene": 1596,
      "worlds": 1597,
      "commit": 1598,
      "truth": 1599,
      "pretty": 1600,
      "ird": 1601,
      "ners": 1602,
      "dem": 1603,
      "course": 1604,
      "benef": 1605,
      "hip": 1606,
      "gram": 1607,
      "bert": 1608,
      "author": 1609,
      "democratic": 1610,
      "lam": 1611,
      "200": 1612,
      "admin": 1613,
      "ability": 1614,
      "ior": 1615,
      "goes": 1616,
      "sent": 1617,
      "mothers": 1618,
      "za": 1619,
      "federal": 1620,
      "ener": 1621,
      "eating": 1622,
      "pie": 1623,
      "return": 1624,
      "mur": 1625,
      "control": 1626,
      "ky": 1627,
      "ators": 1628,
      "ouch": 1629,
      "questions": 1630,
      "leave": 1631,
      "space": 1632,
      "rom": 1633,
      "tu": 1634,
      "interview": 1635,
      "instag": 1636,
      "aud": 1637,
      "journal": 1638,
      "partic": 1639,
      "visit": 1640,
      "respon": 1641,
      "ease": 1642,
      "among": 1643,
      "ana": 1644,
      "ades": 1645,
      "worst": 1646,
      "administr": 1647,
      "paul": 1648,
      "until": 1649,
      "ilar": 1650,
      "moms": 1651,
      "wish": 1652,
      "sever": 1653,
      "ense": 1654,
      "ica": 1655,
      "hael": 1656,
      "early": 1657,
      "avo": 1658,
      "sanders": 1659,
      "euro": 1660,
      "brain": 1661,
      "mit": 1662,
      "30": 1663,
      "loss": 1664,
      "husband": 1665,
      "recipes": 1666,
      "reco": 1667,
      "quality": 1668,
      "below": 1669,
      "victim": 1670,
      "eli": 1671,
      "half": 1672,
      "michael": 1673,
      "east": 1674,
      "scre": 1675,
      "mel": 1676,
      "foot": 1677,
      "geor": 1678,
      "legal": 1679,
      "desp": 1680,
      "roy": 1681,
      "debate": 1682,
      "instead": 1683,
      "batt": 1684,
      "march": 1685,
      "tren": 1686,
      "insp": 1687,
      "mad": 1688,
      "rece": 1689,
      "vel": 1690,
      "2016": 1691,
      "global": 1692,
      "wanted": 1693,
      "pan": 1694,
      "stars": 1695,
      "date": 1696,
      "online": 1697,
      "emplo": 1698,
      "flor": 1699,
      "learned": 1700,
      "ford": 1701,
      "force": 1702,
      "posed": 1703,
      "front": 1704,
      "ze": 1705,
      "arr": 1706,
      "ake": 1707,
      "couple": 1708,
      "beli": 1709,
      "stories": 1710,
      "bid": 1711,
      "shes": 1712,
      "ires": 1713,
      "ida": 1714,
      "pping": 1715,
      "instagram": 1716,
      "opport": 1717,
      "seems": 1718,
      "meet": 1719,
      "dom": 1720,
      "ideas": 1721,
      "surpris": 1722,
      "song": 1723,
      "financ": 1724,
      "icks": 1725,
      "begin": 1726,
      "rock": 1727,
      "ural": 1728,
      "supreme": 1729,
      "deep": 1730,
      "anything": 1731,
      "pregn": 1732,
      "opportun": 1733,
      "sto": 1734,
      "defin": 1735,
      "inside": 1736,
      "process": 1737,
      "nam": 1738,
      "done": 1739,
      "crisis": 1740,
      "paris": 1741,
      "lip": 1742,
      "create": 1743,
      "phil": 1744,
      "ister": 1745,
      "policy": 1746,
      "americas": 1747,
      "role": 1748,
      "imag": 1749,
      "save": 1750,
      "izing": 1751,
      "000": 1752,
      "countr": 1753,
      "assa": 1754,
      "bud": 1755,
      "number": 1756,
      "uses": 1757,
      "fill": 1758,
      "gar": 1759,
      "six": 1760,
      "reach": 1761,
      "ese": 1762,
      "board": 1763,
      "whole": 1764,
      "letter": 1765,
      "james": 1766,
      "fat": 1767,
      "swee": 1768,
      "ield": 1769,
      "walk": 1770,
      "reality": 1771,
      "ially": 1772,
      "father": 1773,
      "prove": 1774,
      "issue": 1775,
      "decision": 1776,
      "shot": 1777,
      "pinterest": 1778,
      "arrest": 1779,
      "docum": 1780,
      "went": 1781,
      "texas": 1782,
      "maybe": 1783,
      "box": 1784,
      "yog": 1785,
      "offer": 1786,
      "director": 1787,
      "winter": 1788,
      "pack": 1789,
      "mee": 1790,
      "exe": 1791,
      "jim": 1792,
      "rais": 1793,
      "inal": 1794,
      "university": 1795,
      "const": 1796,
      "ization": 1797,
      "13": 1798,
      "clean": 1799,
      "nearly": 1800,
      "access": 1801,
      "pul": 1802,
      "lou": 1803,
      "itut": 1804,
      "tribut": 1805,
      "urs": 1806,
      "syr": 1807,
      "amazing": 1808,
      "avoid": 1809,
      "lu": 1810,
      "myself": 1811,
      "challeng": 1812,
      "works": 1813,
      "boo": 1814,
      "fur": 1815,
      "ech": 1816,
      "oh": 1817,
      "ador": 1818,
      "ground": 1819,
      "fair": 1820,
      "else": 1821,
      "fox": 1822,
      "cuss": 1823,
      "ik": 1824,
      "biggest": 1825,
      "protect": 1826,
      "mist": 1827,
      "green": 1828,
      "event": 1829,
      "hen": 1830,
      "depart": 1831,
      "brit": 1832,
      "comed": 1833,
      "aging": 1834,
      "stru": 1835,
      "thinking": 1836,
      "sell": 1837,
      "strugg": 1838,
      "gi": 1839,
      "formation": 1840,
      "emotion": 1841,
      "beach": 1842,
      "based": 1843,
      "convers": 1844,
      "recently": 1845,
      "hate": 1846,
      "remind": 1847,
      "ow": 1848,
      "peace": 1849,
      "idence": 1850,
      "science": 1851,
      "civ": 1852,
      "issues": 1853,
      "families": 1854,
      "dies": 1855,
      "14": 1856,
      "word": 1857,
      "abs": 1858,
      "speak": 1859,
      "pick": 1860,
      "scient": 1861,
      "akes": 1862,
      "culture": 1863,
      "anyone": 1864,
      "given": 1865,
      "running": 1866,
      "touch": 1867,
      "prevent": 1868,
      "effect": 1869,
      "mission": 1870,
      "apo": 1871,
      "osc": 1872,
      "claims": 1873,
      "ived": 1874,
      "popular": 1875,
      "erc": 1876,
      "medit": 1877,
      "cust": 1878,
      "smo": 1879,
      "omb": 1880,
      "talking": 1881,
      "vict": 1882,
      "term": 1883,
      "ening": 1884,
      "ino": 1885,
      "sense": 1886,
      "spirit": 1887,
      "judge": 1888,
      "hours": 1889,
      "along": 1890,
      "oper": 1891,
      "iest": 1892,
      "profess": 1893,
      "thous": 1894,
      "memor": 1895,
      "hosp": 1896,
      "aware": 1897,
      "powerful": 1898,
      "earth": 1899,
      "aur": 1900,
      "lor": 1901,
      "gas": 1902,
      "hab": 1903,
      "ston": 1904,
      "disease": 1905,
      "rap": 1906,
      "terror": 1907,
      "blog": 1908,
      "perfor": 1909,
      "pict": 1910,
      "speech": 1911,
      "despite": 1912,
      "enter": 1913,
      "feeling": 1914,
      "kore": 1915,
      "parenting": 1916,
      "pose": 1917,
      "pression": 1918,
      "tor": 1919,
      "amp": 1920,
      "rise": 1921,
      "record": 1922,
      "25": 1923,
      "cred": 1924,
      "sunday": 1925,
      "toward": 1926,
      "produc": 1927,
      "reportedly": 1928,
      "attention": 1929,
      "exerc": 1930,
      "honor": 1931,
      "hero": 1932,
      "center": 1933,
      "franc": 1934,
      "medic": 1935,
      "psy": 1936,
      "graph": 1937,
      "cul": 1938,
      "chris": 1939,
      "ients": 1940,
      "mart": 1941,
      "spot": 1942,
      "respons": 1943,
      "exc": 1944,
      "execut": 1945,
      "advice": 1946,
      "mexic": 1947,
      "rules": 1948,
      "energy": 1949,
      "wife": 1950,
      "iving": 1951,
      "challen": 1952,
      "members": 1953,
      "complete": 1954,
      "fans": 1955,
      "wild": 1956,
      "model": 1957,
      "cup": 1958,
      "isra": 1959,
      "russia": 1960,
      "danger": 1961,
      "rad": 1962,
      "womens": 1963,
      "requ": 1964,
      "officials": 1965,
      "middle": 1966,
      "une": 1967,
      "kel": 1968,
      "bernie": 1969,
      "international": 1970,
      "service": 1971,
      "strate": 1972,
      "gift": 1973,
      "compan": 1974,
      "invol": 1975,
      "email": 1976,
      "student": 1977,
      "dol": 1978,
      "island": 1979,
      "umbl": 1980,
      "agree": 1981,
      "started": 1982,
      "dist": 1983,
      "howe": 1984,
      "administration": 1985,
      "jan": 1986,
      "ancy": 1987,
      "however": 1988,
      "ike": 1989,
      "van": 1990,
      "david": 1991,
      "military": 1992,
      "ctive": 1993,
      "app": 1994,
      "civil": 1995,
      "launch": 1996,
      "phys": 1997,
      "aper": 1998,
      "buy": 1999,
      "moder": 2000,
      "quick": 2001,
      "ustry": 2002,
      "industry": 2003,
      "fig": 2004,
      "uel": 2005,
      "beyond": 2006,
      "cks": 2007,
      "ony": 2008,
      "hotel": 2009,
      "europe": 2010,
      "suff": 2011,
      "gue": 2012,
      "heard": 2013,
      "tage": 2014,
      "steps": 2015,
      "born": 2016,
      "florida": 2017,
      "vey": 2018,
      "han": 2019,
      "ring": 2020,
      "gs": 2021,
      "workers": 2022,
      "married": 2023,
      "jer": 2024,
      "ensive": 2025,
      "rid": 2026,
      "ites": 2027,
      "holly": 2028,
      "discuss": 2029,
      "park": 2030,
      "brown": 2031,
      "plic": 2032,
      "satur": 2033,
      "18": 2034,
      "hone": 2035,
      "answer": 2036,
      "foods": 2037,
      "message": 2038,
      "including": 2039,
      "lying": 2040,
      "deli": 2041,
      "join": 2042,
      "gives": 2043,
      "actress": 2044,
      "growing": 2045,
      "conserv": 2046,
      "progress": 2047,
      "tro": 2048,
      "relig": 2049,
      "tail": 2050,
      "longer": 2051,
      "restaur": 2052,
      "rev": 2053,
      "espe": 2054,
      "address": 2055,
      "cially": 2056,
      "internet": 2057,
      "practice": 2058,
      "lyn": 2059,
      "rather": 2060,
      "billion": 2061,
      "leav": 2062,
      "general": 2063,
      "tic": 2064,
      "feed": 2065,
      "experi": 2066,
      "tions": 2067,
      "yoga": 2068,
      "gro": 2069,
      "rup": 2070,
      "uff": 2071,
      "wis": 2072,
      "reveal": 2073,
      "jack": 2074,
      "local": 2075,
      "voc": 2076,
      "wasnt": 2077,
      "medical": 2078,
      "chief": 2079,
      "loved": 2080,
      "current": 2081,
      "techno": 2082,
      "onic": 2083,
      "celebrate": 2084,
      "especially": 2085,
      "labor": 2086,
      "places": 2087,
      "accused": 2088,
      "moments": 2089,
      "following": 2090,
      "voters": 2091,
      "0s": 2092,
      "breast": 2093,
      "phone": 2094,
      "ders": 2095,
      "abo": 2096,
      "prov": 2097,
      "couples": 2098,
      "soon": 2099,
      "knew": 2100,
      "saying": 2101,
      "challenge": 2102,
      "gree": 2103,
      "ata": 2104,
      "ctors": 2105,
      "ourselves": 2106,
      "makers": 2107,
      "link": 2108,
      "suppor": 2109,
      "uge": 2110,
      "uary": 2111,
      "leader": 2112,
      "skin": 2113,
      "ified": 2114,
      "talks": 2115,
      "inspir": 2116,
      "outside": 2117,
      "ships": 2118,
      "refle": 2119,
      "mir": 2120,
      "deser": 2121,
      "tweets": 2122,
      "hollywood": 2123,
      "actor": 2124,
      "lights": 2125,
      "gor": 2126,
      "pen": 2127,
      "prison": 2128,
      "fic": 2129,
      "thousands": 2130,
      "response": 2131,
      "several": 2132,
      "financial": 2133,
      "sess": 2134,
      "forward": 2135,
      "emer": 2136,
      "willi": 2137,
      "kate": 2138,
      "ither": 2139,
      "cell": 2140,
      "vacation": 2141,
      "cof": 2142,
      "field": 2143,
      "rob": 2144,
      "birthday": 2145,
      "choice": 2146,
      "enjoy": 2147,
      "envir": 2148,
      "iran": 2149,
      "bol": 2150,
      "china": 2151,
      "ryan": 2152,
      "environ": 2153,
      "awards": 2154,
      "ibility": 2155,
      "cities": 2156,
      "chic": 2157,
      "union": 2158,
      "thank": 2159,
      "ads": 2160,
      "bat": 2161,
      "card": 2162,
      "happened": 2163,
      "candidate": 2164,
      "ub": 2165,
      "artist": 2166,
      "charac": 2167,
      "appear": 2168,
      "felt": 2169,
      "repor": 2170,
      "ingly": 2171,
      "cool": 2172,
      "aug": 2173,
      "repe": 2174,
      "sweet": 2175,
      "document": 2176,
      "ira": 2177,
      "prin": 2178,
      "fan": 2179,
      "vision": 2180,
      "refuge": 2181,
      "prise": 2182,
      "anned": 2183,
      "orig": 2184,
      "decl": 2185,
      "later": 2186,
      "dark": 2187,
      "eye": 2188,
      "2015": 2189,
      "battle": 2190,
      "rio": 2191,
      "london": 2192,
      "extre": 2193,
      "chur": 2194,
      "reveals": 2195,
      "ws": 2196,
      "17": 2197,
      "distr": 2198,
      "lessons": 2199,
      "trail": 2200,
      "taken": 2201,
      "schools": 2202,
      "companies": 2203,
      "beat": 2204,
      "entire": 2205,
      "exact": 2206,
      "24": 2207,
      "discover": 2208,
      "door": 2209,
      "market": 2210,
      "dinner": 2211,
      "ahead": 2212,
      "sports": 2213,
      "tee": 2214,
      "mac": 2215,
      "ises": 2216,
      "track": 2217,
      "problems": 2218,
      "comfort": 2219,
      "career": 2220,
      "ivers": 2221,
      "information": 2222,
      "pred": 2223,
      "alone": 2224,
      "lose": 2225,
      "opportunity": 2226,
      "antic": 2227,
      "ii": 2228,
      "changes": 2229,
      "dd": 2230,
      "plans": 2231,
      "themselves": 2232,
      "department": 2233,
      "histor": 2234,
      "recogn": 2235,
      "kard": 2236,
      "itions": 2237,
      "female": 2238,
      "guy": 2239,
      "russian": 2240,
      "finding": 2241,
      "controvers": 2242,
      "lif": 2243,
      "brand": 2244,
      "bag": 2245,
      "freed": 2246,
      "kardash": 2247,
      "critic": 2248,
      "attacks": 2249,
      "craz": 2250,
      "rench": 2251,
      "positive": 2252,
      "stage": 2253,
      "inspired": 2254,
      "wide": 2255,
      "spend": 2256,
      "magaz": 2257,
      "hospital": 2258,
      "church": 2259,
      "actions": 2260,
      "diffic": 2261,
      "nomine": 2262,
      "meeting": 2263,
      "emotional": 2264,
      "francis": 2265,
      "uce": 2266,
      "joe": 2267,
      "ded": 2268,
      "died": 2269,
      "famous": 2270,
      "lish": 2271,
      "politics": 2272,
      "rep": 2273,
      "tes": 2274,
      "happiness": 2275,
      "sad": 2276,
      "bio": 2277,
      "throw": 2278,
      "happens": 2279,
      "final": 2280,
      "dig": 2281,
      "dev": 2282,
      "lan": 2283,
      "adv": 2284,
      "blood": 2285,
      "stun": 2286,
      "moving": 2287,
      "thanksgiving": 2288,
      "beha": 2289,
      "develop": 2290,
      "ron": 2291,
      "turned": 2292,
      "victims": 2293,
      "ably": 2294,
      "tradition": 2295,
      "saturday": 2296,
      "nic": 2297,
      "stat": 2298,
      "performan": 2299,
      "lee": 2300,
      "shut": 2301,
      "blue": 2302,
      "gain": 2303,
      "anger": 2304,
      "table": 2305,
      "tues": 2306,
      "breaking": 2307,
      "bon": 2308,
      "serious": 2309,
      "researchers": 2310,
      "tumbl": 2311,
      "simply": 2312,
      "16": 2313,
      "review": 2314,
      "quite": 2315,
      "continue": 2316,
      "cir": 2317,
      "within": 2318,
      "program": 2319,
      "mber": 2320,
      "laugh": 2321,
      "cit": 2322,
      "corpor": 2323,
      "jenn": 2324,
      "squ": 2325,
      "depend": 2326,
      "loc": 2327,
      "stone": 2328,
      "senator": 2329,
      "suspect": 2330,
      "jimmy": 2331,
      "attor": 2332,
      "nu": 2333,
      "eyes": 2334,
      "fix": 2335,
      "aft": 2336,
      "explo": 2337,
      "explain": 2338,
      "dating": 2339,
      "vol": 2340,
      "horr": 2341,
      "verse": 2342,
      "bowl": 2343,
      "changed": 2344,
      "truly": 2345,
      "reci": 2346,
      "third": 2347,
      "resh": 2348,
      "july": 2349,
      "diet": 2350,
      "impact": 2351,
      "iate": 2352,
      "surprise": 2353,
      "natural": 2354,
      "welcome": 2355,
      "consum": 2356,
      "prepare": 2357,
      "accept": 2358,
      "carol": 2359,
      "singer": 2360,
      "huge": 2361,
      "large": 2362,
      "chance": 2363,
      "needed": 2364,
      "behavi": 2365,
      "21": 2366,
      "planning": 2367,
      "brid": 2368,
      "society": 2369,
      "moun": 2370,
      "forget": 2371,
      "unk": 2372,
      "secretary": 2373,
      "sed": 2374,
      "itor": 2375,
      "conversation": 2376,
      "scr": 2377,
      "jobs": 2378,
      "employe": 2379,
      "difficult": 2380,
      "hell": 2381,
      "iction": 2382,
      "turns": 2383,
      "exam": 2384,
      "approach": 2385,
      "obamas": 2386,
      "exercise": 2387,
      "technology": 2388,
      "lower": 2389,
      "god": 2390,
      "ances": 2391,
      "tumblr": 2392,
      "sey": 2393,
      "tails": 2394,
      "recipe": 2395,
      "fli": 2396,
      "oil": 2397,
      "ultim": 2398,
      "hallo": 2399,
      "weather": 2400,
      "custom": 2401,
      "data": 2402,
      "mans": 2403,
      "propos": 2404,
      "bing": 2405,
      "zz": 2406,
      "smart": 2407,
      "assault": 2408,
      "halloween": 2409,
      "gers": 2410,
      "grad": 2411,
      "experts": 2412,
      "path": 2413,
      "els": 2414,
      "nations": 2415,
      "sam": 2416,
      "broad": 2417,
      "veter": 2418,
      "modern": 2419,
      "rick": 2420,
      "mult": 2421,
      "ivid": 2422,
      "lawy": 2423,
      "dangerous": 2424,
      "boys": 2425,
      "push": 2426,
      "ran": 2427,
      "vs": 2428,
      "presidents": 2429,
      "athers": 2430,
      "benefits": 2431,
      "george": 2432,
      "sor": 2433,
      "missing": 2434,
      "snow": 2435,
      "draw": 2436,
      "treatment": 2437,
      "gave": 2438,
      "project": 2439,
      "var": 2440,
      "dred": 2441,
      "transgender": 2442,
      "tells": 2443,
      "crow": 2444,
      "fee": 2445,
      "countries": 2446,
      "anx": 2447,
      "confir": 2448,
      "celebrity": 2449,
      "apple": 2450,
      "incred": 2451,
      "dance": 2452,
      "stuff": 2453,
      "fighting": 2454,
      "economic": 2455,
      "festival": 2456,
      "spl": 2457,
      "ints": 2458,
      "plane": 2459,
      "sea": 2460,
      "rote": 2461,
      "saw": 2462,
      "valent": 2463,
      "freedom": 2464,
      "hilar": 2465,
      "spent": 2466,
      "kitch": 2467,
      "uation": 2468,
      "patients": 2469,
      "abuse": 2470,
      "comments": 2471,
      "meaning": 2472,
      "hundred": 2473,
      "mode": 2474,
      "fresh": 2475,
      "wrote": 2476,
      "store": 2477,
      "trust": 2478,
      "achie": 2479,
      "learning": 2480,
      "bomb": 2481,
      "amid": 2482,
      "haps": 2483,
      "cruz": 2484,
      "kin": 2485,
      "bes": 2486,
      "reports": 2487,
      "became": 2488,
      "exactly": 2489,
      "ify": 2490,
      "drin": 2491,
      "chair": 2492,
      "crash": 2493,
      "choose": 2494,
      "watching": 2495,
      "groups": 2496,
      "seven": 2497,
      "flight": 2498,
      "changing": 2499,
      "budget": 2500,
      "cking": 2501,
      "kelly": 2502,
      "sound": 2503,
      "tay": 2504,
      "islam": 2505,
      "particular": 2506,
      "level": 2507,
      "embr": 2508,
      "kills": 2509,
      "40": 2510,
      "ases": 2511,
      "ery": 2512,
      "cked": 2513,
      "credit": 2514,
      "tit": 2515,
      "influ": 2516,
      "ado": 2517,
      "outs": 2518,
      "perhaps": 2519,
      "agement": 2520,
      "french": 2521,
      "murder": 2522,
      "dc": 2523,
      "wins": 2524,
      "marke": 2525,
      "movement": 2526,
      "gal": 2527,
      "neg": 2528,
      "muslim": 2529,
      "obamac": 2530,
      "iraq": 2531,
      "citiz": 2532,
      "millions": 2533,
      "arian": 2534,
      "antly": 2535,
      "journey": 2536,
      "rout": 2537,
      "necess": 2538,
      "fects": 2539,
      "released": 2540,
      "biden": 2541,
      "obamacare": 2542,
      "gone": 2543,
      "descr": 2544,
      "ral": 2545,
      "nfl": 2546,
      "meas": 2547,
      "playing": 2548,
      "building": 2549,
      "target": 2550,
      "luck": 2551,
      "ured": 2552,
      "wine": 2553,
      "todd": 2554,
      "nov": 2555,
      "results": 2556,
      "performance": 2557,
      "assoc": 2558,
      "cold": 2559,
      "cli": 2560,
      "guest": 2561,
      "slow": 2562,
      "neigh": 2563,
      "individ": 2564,
      "laws": 2565,
      "meditation": 2566,
      "please": 2567,
      "immigration": 2568,
      "cross": 2569,
      "equ": 2570,
      "berg": 2571,
      "wait": 2572,
      "dogs": 2573,
      "advoc": 2574,
      "respect": 2575,
      "arrested": 2576,
      "uk": 2577,
      "tried": 2578,
      "books": 2579,
      "due": 2580,
      "zen": 2581,
      "network": 2582,
      "minutes": 2583,
      "coast": 2584,
      "calling": 2585,
      "tot": 2586,
      "exist": 2587,
      "monday": 2588,
      "click": 2589,
      "ode": 2590,
      "catch": 2591,
      "stic": 2592,
      "decades": 2593,
      "mike": 2594,
      "helping": 2595,
      "mix": 2596,
      "anth": 2597,
      "ille": 2598,
      "improve": 2599,
      "position": 2600,
      "sett": 2601,
      "governor": 2602,
      "knows": 2603,
      "ater": 2604,
      "istan": 2605,
      "bush": 2606,
      "believ": 2607,
      "iff": 2608,
      "afford": 2609,
      "iel": 2610,
      "himself": 2611,
      "killing": 2612,
      "faces": 2613,
      "soul": 2614,
      "ibly": 2615,
      "paid": 2616,
      "weddings": 2617,
      "holidays": 2618,
      "extra": 2619,
      "football": 2620,
      "adorable": 2621,
      "unique": 2622,
      "cases": 2623,
      "held": 2624,
      "olutions": 2625,
      "scott": 2626,
      "cro": 2627,
      "sour": 2628,
      "anta": 2629,
      "spea": 2630,
      "icle": 2631,
      "prince": 2632,
      "raise": 2633,
      "animal": 2634,
      "safety": 2635,
      "iny": 2636,
      "tract": 2637,
      "effort": 2638,
      "lack": 2639,
      "liber": 2640,
      "kitchen": 2641,
      "heav": 2642,
      "intro": 2643,
      "cake": 2644,
      "rain": 2645,
      "attorney": 2646,
      "reading": 2647,
      "challenges": 2648,
      "fathers": 2649,
      "poor": 2650,
      "fant": 2651,
      "sons": 2652,
      "lady": 2653,
      "anti": 2654,
      "ext": 2655,
      "linked": 2656,
      "stra": 2657,
      "guil": 2658,
      "eg": 2659,
      "swe": 2660,
      "ined": 2661,
      "taste": 2662,
      "affect": 2663,
      "prev": 2664,
      "diag": 2665,
      "ril": 2666,
      "rare": 2667,
      "alter": 2668,
      "trou": 2669,
      "thern": 2670,
      "izes": 2671,
      "queer": 2672,
      "potential": 2673,
      "wers": 2674,
      "cannot": 2675,
      "mindful": 2676,
      "michel": 2677,
      "economy": 2678,
      "homes": 2679,
      "suggests": 2680,
      "above": 2681,
      "oud": 2682,
      "investigation": 2683,
      "korea": 2684,
      "pi": 2685,
      "totally": 2686,
      "era": 2687,
      "account": 2688,
      "pped": 2689,
      "although": 2690,
      "decided": 2691,
      "either": 2692,
      "games": 2693,
      "usive": 2694,
      "creative": 2695,
      "aim": 2696,
      "crazy": 2697,
      "ko": 2698,
      "sick": 2699,
      "represent": 2700,
      "normal": 2701,
      "bay": 2702,
      "doctors": 2703,
      "couldnt": 2704,
      "release": 2705,
      "sequ": 2706,
      "allegedly": 2707,
      "ume": 2708,
      "turning": 2709,
      "stephen": 2710,
      "ena": 2711,
      "ush": 2712,
      "ceo": 2713,
      "foreign": 2714,
      "difference": 2715,
      "shares": 2716,
      "extreme": 2717,
      "diagno": 2718,
      "ties": 2719,
      "note": 2720,
      "taylor": 2721,
      "candidates": 2722,
      "teens": 2723,
      "wars": 2724,
      "hands": 2725,
      "epis": 2726,
      "winning": 2727,
      "atives": 2728,
      "glass": 2729,
      "enced": 2730,
      "nature": 2731,
      "products": 2732,
      "faith": 2733,
      "continues": 2734,
      "ulous": 2735,
      "goog": 2736,
      "chocol": 2737,
      "intel": 2738,
      "staff": 2739,
      "evidence": 2740,
      "snl": 2741,
      "jon": 2742,
      "aling": 2743,
      "spending": 2744,
      "shouldnt": 2745,
      "magazine": 2746,
      "ifer": 2747,
      "ials": 2748,
      "match": 2749,
      "bum": 2750,
      "mile": 2751,
      "champ": 2752,
      "whose": 2753,
      "thoughts": 2754,
      "anna": 2755,
      "bank": 2756,
      "pic": 2757,
      "thurs": 2758,
      "inj": 2759,
      "chick": 2760,
      "helped": 2761,
      "hack": 2762,
      "becoming": 2763,
      "confl": 2764,
      "relationships": 2765,
      "kardashian": 2766,
      "drink": 2767,
      "afric": 2768,
      "ert": 2769,
      "wearing": 2770,
      "tels": 2771,
      "jeff": 2772,
      "virgin": 2773,
      "abortion": 2774,
      "private": 2775,
      "jen": 2776,
      "lier": 2777,
      "tribute": 2778,
      "tuesday": 2779,
      "austr": 2780,
      "anda": 2781,
      "aming": 2782,
      "listen": 2783,
      "signs": 2784,
      "minute": 2785,
      "behavior": 2786,
      "april": 2787,
      "ghan": 2788,
      "looked": 2789,
      "scientists": 2790,
      "coffee": 2791,
      "shopping": 2792,
      "pregnant": 2793,
      "kat": 2794,
      "created": 2795,
      "voice": 2796,
      "olympic": 2797,
      "acts": 2798,
      "planned": 2799,
      "events": 2800,
      "respond": 2801,
      "via": 2802,
      "secut": 2803,
      "dear": 2804,
      "apparent": 2805,
      "makeup": 2806,
      "names": 2807,
      "vor": 2808,
      "brought": 2809,
      "therap": 2810,
      "ager": 2811,
      "reported": 2812,
      "dar": 2813,
      "ently": 2814,
      "coach": 2815,
      "harass": 2816,
      "politic": 2817,
      "classic": 2818,
      "awareness": 2819,
      "annivers": 2820,
      "delic": 2821,
      "jap": 2822,
      "storm": 2823,
      "ada": 2824,
      "golden": 2825,
      "disney": 2826,
      "ference": 2827,
      "sar": 2828,
      "swi": 2829,
      "remain": 2830,
      "itude": 2831,
      "wouldnt": 2832,
      "officer": 2833,
      "character": 2834,
      "associ": 2835,
      "awes": 2836,
      "leading": 2837,
      "atest": 2838,
      "hall": 2839,
      "legis": 2840,
      "beth": 2841,
      "tele": 2842,
      "worry": 2843,
      "uclear": 2844,
      "greatest": 2845,
      "bc": 2846,
      "insur": 2847,
      "warm": 2848,
      "chicago": 2849,
      "cn": 2850,
      "reform": 2851,
      "camer": 2852,
      "advis": 2853,
      "ays": 2854,
      "worse": 2855,
      "trade": 2856,
      "century": 2857,
      "primary": 2858,
      "anniversary": 2859,
      "fish": 2860,
      "hotels": 2861,
      "ivity": 2862,
      "hundreds": 2863,
      "scand": 2864,
      "olute": 2865,
      "announced": 2866,
      "kick": 2867,
      "nick": 2868,
      "nominee": 2869,
      "award": 2870,
      "louis": 2871,
      "stren": 2872,
      "ories": 2873,
      "babies": 2874,
      "dads": 2875,
      "tool": 2876,
      "usion": 2877,
      "helps": 2878,
      "acc": 2879,
      "valentines": 2880,
      "bot": 2881,
      "ulation": 2882,
      "upon": 2883,
      "seeing": 2884,
      "fake": 2885,
      "british": 2886,
      "chocolate": 2887,
      "nuclear": 2888,
      "ths": 2889,
      "keeping": 2890,
      "ni": 2891,
      "hurric": 2892,
      "jennifer": 2893,
      "streng": 2894,
      "jump": 2895,
      "offers": 2896,
      "wednes": 2897,
      "hi": 2898,
      "ising": 2899,
      "expected": 2900,
      "executive": 2901,
      "convent": 2902,
      "caugh": 2903,
      "absolute": 2904,
      "mexico": 2905,
      "completely": 2906,
      "sold": 2907,
      "advent": 2908,
      "femin": 2909,
      "higher": 2910,
      "michelle": 2911,
      "pon": 2912,
      "compet": 2913,
      "counter": 2914,
      "smith": 2915,
      "sof": 2916,
      "independ": 2917,
      "dreams": 2918,
      "caught": 2919,
      "bath": 2920,
      "liter": 2921,
      "drag": 2922,
      "celebrities": 2923,
      "picture": 2924,
      "straight": 2925,
      "bac": 2926,
      "cin": 2927,
      "thinks": 2928,
      "istic": 2929,
      "designer": 2930,
      "awesome": 2931,
      "base": 2932,
      "ington": 2933,
      "pun": 2934,
      "reli": 2935,
      "imagine": 2936,
      "itself": 2937,
      "marks": 2938,
      "native": 2939,
      "apart": 2940,
      "religious": 2941,
      "irt": 2942,
      "2017": 2943,
      "homeless": 2944,
      "signific": 2945,
      "adop": 2946,
      "image": 2947,
      "itely": 2948,
      "june": 2949,
      "generation": 2950,
      "wind": 2951,
      "cock": 2952,
      "aked": 2953,
      "screen": 2954,
      "lains": 2955,
      "hat": 2956,
      "hid": 2957,
      "debut": 2958,
      "fbi": 2959,
      "vies": 2960,
      "zo": 2961,
      "iana": 2962,
      "gifts": 2963,
      "flow": 2964,
      "init": 2965,
      "pope": 2966,
      "williams": 2967,
      "pac": 2968,
      "hous": 2969,
      "arm": 2970,
      "enty": 2971,
      "training": 2972,
      "mob": 2973,
      "piece": 2974,
      "bell": 2975,
      "certainly": 2976,
      "youth": 2977,
      "connect": 2978,
      "lgbtq": 2979,
      "price": 2980,
      "shop": 2981,
      "israel": 2982,
      "pounds": 2983,
      "decor": 2984,
      "lake": 2985,
      "demand": 2986,
      "defense": 2987,
      "successful": 2988,
      "losing": 2989,
      "creating": 2990,
      "logical": 2991,
      "carolina": 2992,
      "carr": 2993,
      "mot": 2994,
      "published": 2995,
      "oscar": 2996,
      "writing": 2997,
      "feels": 2998,
      "standing": 2999,
      "cere": 3000,
      "stick": 3001,
      "alex": 3002,
      "muse": 3003,
      "queen": 3004,
      "nc": 3005,
      "disast": 3006,
      "waiting": 3007,
      "trailer": 3008,
      "austral": 3009,
      "page": 3010,
      "loving": 3011,
      "easier": 3012,
      "teachers": 3013,
      "movies": 3014,
      "quar": 3015,
      "cops": 3016,
      "lawmakers": 3017,
      "daughters": 3018,
      "psycho": 3019,
      "adults": 3020,
      "walking": 3021,
      "surviv": 3022,
      "honest": 3023,
      "gent": 3024,
      "ole": 3025,
      "chines": 3026,
      "brief": 3027,
      "mary": 3028,
      "forts": 3029,
      "goal": 3030,
      "ifying": 3031,
      "opening": 3032,
      "teacher": 3033,
      "album": 3034,
      "separ": 3035,
      "shif": 3036,
      "photograp": 3037,
      "rule": 3038,
      "increas": 3039,
      "pil": 3040,
      "maker": 3041,
      "cha": 3042,
      "resist": 3043,
      "carpet": 3044,
      "named": 3045,
      "effective": 3046,
      "loy": 3047,
      "plus": 3048,
      "craft": 3049,
      "ka": 3050,
      "ison": 3051,
      "active": 3052,
      "gry": 3053,
      "tweet": 3054,
      "beginning": 3055,
      "jail": 3056,
      "nutr": 3057,
      "ito": 3058,
      "ya": 3059,
      "cream": 3060,
      "fortun": 3061,
      "olympics": 3062,
      "habits": 3063,
      "inspiration": 3064,
      "fine": 3065,
      "ville": 3066,
      "asking": 3067,
      "ses": 3068,
      "voting": 3069,
      "angeles": 3070,
      "stunning": 3071,
      "nav": 3072,
      "depression": 3073,
      "provide": 3074,
      "brings": 3075,
      "seriously": 3076,
      "racist": 3077,
      "syria": 3078,
      "ordin": 3079,
      "aries": 3080,
      "cute": 3081,
      "anch": 3082,
      "doctor": 3083,
      "charged": 3084,
      "planet": 3085,
      "lax": 3086,
      "appre": 3087,
      "anxiety": 3088,
      "google": 3089,
      "ilities": 3090,
      "opens": 3091,
      "proper": 3092,
      "wake": 3093,
      "border": 3094,
      "roundup": 3095,
      "trick": 3096,
      "airport": 3097,
      "massive": 3098,
      "african": 3099,
      "hurricane": 3100,
      "eth": 3101,
      "wit": 3102,
      "stre": 3103,
      "serve": 3104,
      "itten": 3105,
      "starting": 3106,
      "py": 3107,
      "stri": 3108,
      "writer": 3109,
      "earlier": 3110,
      "vintage": 3111,
      "discrim": 3112,
      "capt": 3113,
      "22": 3114,
      "amoun": 3115,
      "videos": 3116,
      "write": 3117,
      "iled": 3118,
      "mayor": 3119,
      "entertain": 3120,
      "nail": 3121,
      "realize": 3122,
      "encour": 3123,
      "capital": 3124,
      "gps": 3125,
      "admit": 3126,
      "apped": 3127,
      "turkey": 3128,
      "include": 3129,
      "icide": 3130,
      "pray": 3131,
      "princess": 3132,
      "aver": 3133,
      "tip": 3134,
      "beer": 3135,
      "points": 3136,
      "scene": 3137,
      "japan": 3138,
      "nice": 3139,
      "inations": 3140,
      "carry": 3141,
      "filled": 3142,
      "conservative": 3143,
      "item": 3144,
      "whate": 3145,
      "regard": 3146,
      "zy": 3147,
      "zer": 3148,
      "type": 3149,
      "funny": 3150,
      "hits": 3151,
      "paper": 3152,
      "robert": 3153,
      "condu": 3154,
      "club": 3155,
      "mr": 3156,
      "began": 3157,
      "promise": 3158,
      "definitely": 3159,
      "fab": 3160,
      "trial": 3161,
      "survey": 3162,
      "matters": 3163,
      "traveling": 3164,
      "easter": 3165,
      "employees": 3166,
      "flix": 3167,
      "buc": 3168,
      "ised": 3169,
      "becomes": 3170,
      "resign": 3171,
      "guys": 3172,
      "jects": 3173,
      "hurt": 3174,
      "equality": 3175,
      "gus": 3176,
      "wise": 3177,
      "idents": 3178,
      "workout": 3179,
      "netflix": 3180,
      "images": 3181,
      "moon": 3182,
      "crime": 3183,
      "fitness": 3184,
      "anal": 3185,
      "drive": 3186,
      "colbert": 3187,
      "sky": 3188,
      "fro": 3189,
      "communic": 3190,
      "las": 3191,
      "remo": 3192,
      "crack": 3193,
      "aine": 3194,
      "lawsuit": 3195,
      "episode": 3196,
      "hest": 3197,
      "plant": 3198,
      "efforts": 3199,
      "telling": 3200,
      "direct": 3201,
      "involved": 3202,
      "whatever": 3203,
      "thes": 3204,
      "statement": 3205,
      "martin": 3206,
      "bby": 3207,
      "ctr": 3208,
      "ables": 3209,
      "comment": 3210,
      "related": 3211,
      "restaurant": 3212,
      "thursday": 3213,
      "tough": 3214,
      "forces": 3215,
      "steve": 3216,
      "camp": 3217,
      "largest": 3218,
      "gies": 3219,
      "nove": 3220,
      "myster": 3221,
      "grat": 3222,
      "harry": 3223,
      "facing": 3224,
      "send": 3225,
      "value": 3226,
      "christian": 3227,
      "boost": 3228,
      "weird": 3229,
      "chicken": 3230,
      "fal": 3231,
      "consc": 3232,
      "artists": 3233,
      "temp": 3234,
      "master": 3235,
      "prosecut": 3236,
      "achel": 3237,
      "rooms": 3238,
      "trend": 3239,
      "museum": 3240,
      "athlet": 3241,
      "forever": 3242,
      "childrens": 3243,
      "gia": 3244,
      "hed": 3245,
      "jones": 3246,
      "ali": 3247,
      "199": 3248,
      "historic": 3249,
      "site": 3250,
      "pregnancy": 3251,
      "fired": 3252,
      "anne": 3253,
      "bright": 3254,
      "chef": 3255,
      "cooking": 3256,
      "supporters": 3257,
      "mers": 3258,
      "cos": 3259,
      "similar": 3260,
      "institut": 3261,
      "criminal": 3262,
      "leadership": 3263,
      "23": 3264,
      "blow": 3265,
      "thood": 3266,
      "cheese": 3267,
      "ledge": 3268,
      "animals": 3269,
      "sens": 3270,
      "wing": 3271,
      "prime": 3272,
      "refugees": 3273,
      "corporate": 3274,
      "hib": 3275,
      "chi": 3276,
      "trends": 3277,
      "gard": 3278,
      "vid": 3279,
      "quie": 3280,
      "cry": 3281,
      "version": 3282,
      "eliza": 3283,
      "older": 3284,
      "players": 3285,
      "cue": 3286,
      "area": 3287,
      "illness": 3288,
      "veget": 3289,
      "rape": 3290,
      "regular": 3291,
      "breakfast": 3292,
      "spiritual": 3293,
      "legend": 3294,
      "broken": 3295,
      "costs": 3296,
      "tempt": 3297,
      "gins": 3298,
      "charges": 3299,
      "facts": 3300,
      "passion": 3301,
      "lawyer": 3302,
      "fuel": 3303,
      "rally": 3304,
      "ander": 3305,
      "immed": 3306,
      "erson": 3307,
      "afghan": 3308,
      "whos": 3309,
      "childhood": 3310,
      "explains": 3311,
      "condition": 3312,
      "sugar": 3313,
      "physical": 3314,
      "split": 3315,
      "hilarious": 3316,
      "shel": 3317,
      "rey": 3318,
      "termin": 3319,
      "ancing": 3320,
      "majority": 3321,
      "delicious": 3322,
      "jr": 3323,
      "rate": 3324,
      "editor": 3325,
      "warning": 3326,
      "brook": 3327,
      "continu": 3328,
      "committee": 3329,
      "scandal": 3330,
      "elizabeth": 3331,
      "proud": 3332,
      "deadly": 3333,
      "jess": 3334,
      "seat": 3335,
      "usually": 3336,
      "ounder": 3337,
      "pressure": 3338,
      "partner": 3339,
      "coron": 3340,
      "incredible": 3341,
      "pra": 3342,
      "dressed": 3343,
      "surprising": 3344,
      "rum": 3345,
      "ung": 3346,
      "comb": 3347,
      "breath": 3348,
      "understanding": 3349,
      "digital": 3350,
      "fif": 3351,
      "kar": 3352,
      "sust": 3353,
      "vill": 3354,
      "demon": 3355,
      "annual": 3356,
      "apolog": 3357,
      "mine": 3358,
      "oring": 3359,
      "cture": 3360,
      "ody": 3361,
      "leaves": 3362,
      "neighbor": 3363,
      "apparently": 3364,
      "jam": 3365,
      "prior": 3366,
      "magic": 3367,
      "60": 3368,
      "pse": 3369,
      "kept": 3370,
      "weekly": 3371,
      "barr": 3372,
      "sla": 3373,
      "vit": 3374,
      "relax": 3375,
      "ains": 3376,
      "opin": 3377,
      "ague": 3378,
      "putting": 3379,
      "slides": 3380,
      "loves": 3381,
      "fru": 3382,
      "meat": 3383,
      "izon": 3384,
      "nyc": 3385,
      "further": 3386,
      "webs": 3387,
      "goals": 3388,
      "article": 3389,
      "diy": 3390,
      "particip": 3391,
      "quickly": 3392,
      "uals": 3393,
      "details": 3394,
      "minister": 3395,
      "secrets": 3396,
      "shared": 3397,
      "ride": 3398,
      "meal": 3399,
      "expert": 3400,
      "activists": 3401,
      "deliver": 3402,
      "experiences": 3403,
      "models": 3404,
      "harassment": 3405,
      "wednesday": 3406,
      "vert": 3407,
      "except": 3408,
      "absolutely": 3409,
      "fare": 3410,
      "size": 3411,
      "outr": 3412,
      "player": 3413,
      "collection": 3414,
      "dow": 3415,
      "saving": 3416,
      "controversial": 3417,
      "chinese": 3418,
      "ukr": 3419,
      "andre": 3420,
      "ental": 3421,
      "debt": 3422,
      "guns": 3423,
      "critical": 3424,
      "increase": 3425,
      "graphic": 3426,
      "proposal": 3427,
      "choices": 3428,
      "communities": 3429,
      "essential": 3430,
      "justin": 3431,
      "block": 3432,
      "protesters": 3433,
      "comedy": 3434,
      "victory": 3435,
      "appears": 3436,
      "hiv": 3437,
      "saud": 3438,
      "central": 3439,
      "lunch": 3440,
      "uters": 3441,
      "taugh": 3442,
      "announce": 3443,
      "achieve": 3444,
      "ek": 3445,
      "ski": 3446,
      "connected": 3447,
      "situation": 3448,
      "stock": 3449,
      "intellig": 3450,
      "taught": 3451,
      "sets": 3452,
      "hop": 3453,
      "officers": 3454,
      "balance": 3455,
      "bie": 3456,
      "ened": 3457,
      "iling": 3458,
      "ium": 3459,
      "igno": 3460,
      "covid": 3461,
      "shoes": 3462,
      "blast": 3463,
      "scen": 3464,
      "eight": 3465,
      "cher": 3466,
      "drugs": 3467,
      "ultimate": 3468,
      "insurance": 3469,
      "sustain": 3470,
      "weap": 3471,
      "shar": 3472,
      "counts": 3473,
      "struggle": 3474,
      "minor": 3475,
      "plays": 3476,
      "swim": 3477,
      "ape": 3478,
      "havent": 3479,
      "fing": 3480,
      "asks": 3481,
      "ops": 3482,
      "excl": 3483,
      "0000": 3484,
      "royal": 3485,
      "development": 3486,
      "pump": 3487,
      "amy": 3488,
      "update": 3489,
      "suicide": 3490,
      "oscars": 3491,
      "ax": 3492,
      "gather": 3493,
      "airlines": 3494,
      "nutrition": 3495,
      "tan": 3496,
      "inner": 3497,
      "repre": 3498,
      "constitut": 3499,
      "arab": 3500,
      "grace": 3501,
      "electr": 3502,
      "growth": 3503,
      "received": 3504,
      "text": 3505,
      "mari": 3506,
      "organiz": 3507,
      "tube": 3508,
      "mistakes": 3509,
      "langu": 3510,
      "cnn": 3511,
      "ell": 3512,
      "lay": 3513,
      "mony": 3514,
      "friendly": 3515,
      "figure": 3516,
      "drinking": 3517,
      "onto": 3518,
      "todays": 3519,
      "hopes": 3520,
      "irus": 3521,
      "alive": 3522,
      "pool": 3523,
      "feelings": 3524,
      "gotten": 3525,
      "raising": 3526,
      "appreci": 3527,
      "nas": 3528,
      "arily": 3529,
      "opho": 3530,
      "iple": 3531,
      "content": 3532,
      "compass": 3533,
      "expensive": 3534,
      "numbers": 3535,
      "organization": 3536,
      "lux": 3537,
      "leaving": 3538,
      "forms": 3539,
      "guilty": 3540,
      "illi": 3541,
      "proof": 3542,
      "bling": 3543,
      "november": 3544,
      "wart": 3545,
      "driving": 3546,
      "pleas": 3547,
      "voter": 3548,
      "mater": 3549,
      "viral": 3550,
      "reuters": 3551,
      "users": 3552,
      "pled": 3553,
      "corre": 3554,
      "played": 3555,
      "protests": 3556,
      "medicine": 3557,
      "dome": 3558,
      "amed": 3559,
      "olf": 3560,
      "avirus": 3561,
      "parts": 3562,
      "written": 3563,
      "sales": 3564,
      "responsibility": 3565,
      "reprene": 3566,
      "bis": 3567,
      "oli": 3568,
      "hearing": 3569,
      "express": 3570,
      "braz": 3571,
      "guard": 3572,
      "partners": 3573,
      "suffer": 3574,
      "jac": 3575,
      "iced": 3576,
      "entreprene": 3577,
      "bodies": 3578,
      "promo": 3579,
      "wisdom": 3580,
      "dia": 3581,
      "sac": 3582,
      "forced": 3583,
      "usual": 3584,
      "appropr": 3585,
      "drop": 3586,
      "cing": 3587,
      "ched": 3588,
      "ceed": 3589,
      "willing": 3590,
      "retire": 3591,
      "bringing": 3592,
      "necessary": 3593,
      "kets": 3594,
      "quit": 3595,
      "gency": 3596,
      "kan": 3597,
      "throughout": 3598,
      "paying": 3599,
      "complic": 3600,
      "funding": 3601,
      "product": 3602,
      "pin": 3603,
      "wealth": 3604,
      "iger": 3605,
      "ups": 3606,
      "traditional": 3607,
      "fraud": 3608,
      "doll": 3609,
      "gorge": 3610,
      "swift": 3611,
      "wast": 3612,
      "ilt": 3613,
      "vels": 3614,
      "appoint": 3615,
      "banks": 3616,
      "johnson": 3617,
      "feeding": 3618,
      "colum": 3619,
      "effects": 3620,
      "racism": 3621,
      "jok": 3622,
      "boston": 3623,
      "bride": 3624,
      "vacc": 3625,
      "coronavirus": 3626,
      "bust": 3627,
      "cure": 3628,
      "ato": 3629,
      "rose": 3630,
      "frank": 3631,
      "rubio": 3632,
      "allegations": 3633,
      "rema": 3634,
      "aps": 3635,
      "travelers": 3636,
      "faced": 3637,
      "miles": 3638,
      "giant": 3639,
      "ez": 3640,
      "impress": 3641,
      "appeared": 3642,
      "breaks": 3643,
      "immigrants": 3644,
      "original": 3645,
      "quiet": 3646,
      "tack": 3647,
      "thom": 3648,
      "illy": 3649,
      "grams": 3650,
      "belief": 3651,
      "citizens": 3652,
      "settle": 3653,
      "fly": 3654,
      "replace": 3655,
      "compare": 3656,
      "pride": 3657,
      "covered": 3658,
      "failed": 3659,
      "strategy": 3660,
      "comfortable": 3661,
      "nur": 3662,
      "rip": 3663,
      "meant": 3664,
      "coal": 3665,
      "worked": 3666,
      "routine": 3667,
      "inju": 3668,
      "lots": 3669,
      "profit": 3670,
      "conflict": 3671,
      "jessica": 3672,
      "pair": 3673,
      "tens": 3674,
      "avail": 3675,
      "showed": 3676,
      "shape": 3677,
      "veterans": 3678,
      "mariju": 3679,
      "icted": 3680,
      "fears": 3681,
      "everywhere": 3682,
      "lesson": 3683,
      "autism": 3684,
      "celebrating": 3685,
      "gorgeous": 3686,
      "asy": 3687,
      "result": 3688,
      "conference": 3689,
      "evolution": 3690,
      "county": 3691,
      "ios": 3692,
      "racial": 3693,
      "january": 3694,
      "jenner": 3695,
      "va": 3696,
      "options": 3697,
      "scar": 3698,
      "tiny": 3699,
      "total": 3700,
      "vegas": 3701,
      "aces": 3702,
      "feet": 3703,
      "gov": 3704,
      "plenty": 3705,
      "perry": 3706,
      "restaurants": 3707,
      "ga": 3708,
      "income": 3709,
      "purpose": 3710,
      "doubt": 3711,
      "revealed": 3712,
      "jay": 3713,
      "legacy": 3714,
      "failure": 3715,
      "sitting": 3716,
      "remains": 3717,
      "obv": 3718,
      "professional": 3719,
      "environment": 3720,
      "negative": 3721,
      "slideshow": 3722,
      "hig": 3723,
      "cape": 3724,
      "alleged": 3725,
      "benefit": 3726,
      "virginia": 3727,
      "mand": 3728,
      "nine": 3729,
      "sounds": 3730,
      "butter": 3731,
      "blame": 3732,
      "attend": 3733,
      "huffington": 3734,
      "films": 3735,
      "unex": 3736,
      "motiv": 3737,
      "domestic": 3738,
      "santa": 3739,
      "wo": 3740,
      "roo": 3741,
      "dece": 3742,
      "perform": 3743,
      "atl": 3744,
      "acce": 3745,
      "sched": 3746,
      "refer": 3747,
      "accom": 3748,
      "worr": 3749,
      "grill": 3750,
      "obsess": 3751,
      "lands": 3752,
      "angel": 3753,
      "cards": 3754,
      "sher": 3755,
      "strike": 3756,
      "minim": 3757,
      "tural": 3758,
      "brother": 3759,
      "stern": 3760,
      "connection": 3761,
      "marijuana": 3762,
      "26": 3763,
      "bia": 3764,
      "cab": 3765,
      "amount": 3766,
      "lind": 3767,
      "environmental": 3768,
      "hawa": 3769,
      "parenthood": 3770,
      "accident": 3771,
      "pit": 3772,
      "innov": 3773,
      "bott": 3774,
      "perspect": 3775,
      "charge": 3776,
      "busy": 3777,
      "patient": 3778,
      "policies": 3779,
      "pictures": 3780,
      "mich": 3781,
      "piz": 3782,
      "whel": 3783,
      "empower": 3784,
      "syn": 3785,
      "cuts": 3786,
      "clothes": 3787,
      "barack": 3788,
      "clintons": 3789,
      "countrys": 3790,
      "lers": 3791,
      "brad": 3792,
      "engagement": 3793,
      "missed": 3794,
      "niest": 3795,
      "crowd": 3796,
      "describ": 3797,
      "rand": 3798,
      "heat": 3799,
      "commer": 3800,
      "greater": 3801,
      "affair": 3802,
      "services": 3803,
      "sorry": 3804,
      "clip": 3805,
      "iver": 3806,
      "typ": 3807,
      "mont": 3808,
      "syrian": 3809,
      "august": 3810,
      "discovered": 3811,
      "nbc": 3812,
      "ww": 3813,
      "nel": 3814,
      "neys": 3815,
      "fection": 3816,
      "european": 3817,
      "gum": 3818,
      "yers": 3819,
      "neu": 3820,
      "gym": 3821,
      "hearts": 3822,
      "legisl": 3823,
      "probe": 3824,
      "agency": 3825,
      "dish": 3826,
      "studies": 3827,
      "complex": 3828,
      "flood": 3829,
      "returns": 3830,
      "saudi": 3831,
      "ota": 3832,
      "iding": 3833,
      "youtube": 3834,
      "adult": 3835,
      "iring": 3836,
      "contest": 3837,
      "print": 3838,
      "francisco": 3839,
      "iar": 3840,
      "pink": 3841,
      "ares": 3842,
      "keeps": 3843,
      "attemp": 3844,
      "idency": 3845,
      "boss": 3846,
      "spark": 3847,
      "identity": 3848,
      "eper": 3849,
      "skills": 3850,
      "regul": 3851,
      "oce": 3852,
      "recomm": 3853,
      "chem": 3854,
      "moore": 3855,
      "pects": 3856,
      "spread": 3857,
      "rising": 3858,
      "wonderful": 3859,
      "songs": 3860,
      "funniest": 3861,
      "conscious": 3862,
      "intelligence": 3863,
      "35": 3864,
      "moves": 3865,
      "max": 3866,
      "sharing": 3867,
      "peri": 3868,
      "dra": 3869,
      "officially": 3870,
      "authorities": 3871,
      "intim": 3872,
      "sep": 3873,
      "types": 3874,
      "198": 3875,
      "revolution": 3876,
      "bun": 3877,
      "inated": 3878,
      "addiction": 3879,
      "affordable": 3880,
      "therapy": 3881,
      "period": 3882,
      "icts": 3883,
      "cohol": 3884,
      "obes": 3885,
      "holding": 3886,
      "receive": 3887,
      "sarah": 3888,
      "nights": 3889,
      "shame": 3890,
      "seek": 3891,
      "warren": 3892,
      "clothing": 3893,
      "terrible": 3894,
      "africa": 3895,
      "pants": 3896,
      "sister": 3897,
      "awk": 3898,
      "views": 3899,
      "claimed": 3900,
      "palest": 3901,
      "embrace": 3902,
      "witness": 3903,
      "27": 3904,
      "jes": 3905,
      "bear": 3906,
      "ids": 3907,
      "brides": 3908,
      "premi": 3909,
      "surger": 3910,
      "function": 3911,
      "worthy": 3912,
      "silence": 3913,
      "deserve": 3914,
      "particularly": 3915,
      "ches": 3916,
      "youd": 3917,
      "showing": 3918,
      "engaged": 3919,
      "fle": 3920,
      "alcohol": 3921,
      "traged": 3922,
      "winner": 3923,
      "injured": 3924,
      "cil": 3925,
      "impro": 3926,
      "irty": 3927,
      "musical": 3928,
      "putin": 3929,
      "setting": 3930,
      "georgia": 3931,
      "toddler": 3932,
      "language": 3933,
      "bob": 3934,
      "overwhel": 3935,
      "features": 3936,
      "documentary": 3937,
      "available": 3938,
      "cs": 3939,
      "pitch": 3940,
      "solution": 3941,
      "vul": 3942,
      "atory": 3943,
      "divorced": 3944,
      "occur": 3945,
      "igan": 3946,
      "france": 3947,
      "shor": 3948,
      "expand": 3949,
      "democracy": 3950,
      "glam": 3951,
      "average": 3952,
      "nut": 3953,
      "penn": 3954,
      "lims": 3955,
      "hasnt": 3956,
      "disorder": 3957,
      "dresses": 3958,
      "beyon": 3959,
      "afraid": 3960,
      "conduct": 3961,
      "unexpect": 3962,
      "obesity": 3963,
      "concept": 3964,
      "guess": 3965,
      "owners": 3966,
      "elect": 3967,
      "passed": 3968,
      "maintain": 3969,
      "predict": 3970,
      "kanye": 3971,
      "septem": 3972,
      "matt": 3973,
      "tat": 3974,
      "stuck": 3975,
      "polls": 3976,
      "readers": 3977,
      "starts": 3978,
      "inas": 3979,
      "eric": 3980,
      "core": 3981,
      "critics": 3982,
      "significant": 3983,
      "restr": 3984,
      "ature": 3985,
      "plat": 3986,
      "fergus": 3987,
      "soccer": 3988,
      "deaths": 3989,
      "reporter": 3990,
      "athletes": 3991,
      "september": 3992,
      "pup": 3993,
      "ining": 3994,
      "weigh": 3995,
      "traff": 3996,
      "iowa": 3997,
      "owner": 3998,
      "closer": 3999,
      "muslims": 4000,
      "decisions": 4001,
      "covid19": 4002,
      "compassion": 4003,
      "bars": 4004,
      "senators": 4005,
      "decide": 4006,
      "diversity": 4007,
      "opened": 4008,
      "specific": 4009,
      "grammy": 4010,
      "false": 4011,
      "mou": 4012,
      "programs": 4013,
      "sud": 4014,
      "bles": 4015,
      "spect": 4016,
      "convention": 4017,
      "alab": 4018,
      "strange": 4019,
      "parties": 4020,
      "buying": 4021,
      "univers": 4022,
      "streets": 4023,
      "none": 4024,
      "isa": 4025,
      "campus": 4026,
      "krist": 4027,
      "repeal": 4028,
      "sandy": 4029,
      "armed": 4030,
      "lock": 4031,
      "terms": 4032,
      "highly": 4033,
      "stopped": 4034,
      "ohio": 4035,
      "literally": 4036,
      "sters": 4037,
      "orders": 4038,
      "arms": 4039,
      "ansas": 4040,
      "voted": 4041,
      "wellbeing": 4042,
      "harm": 4043,
      "items": 4044,
      "levels": 4045,
      "evening": 4046,
      "harvey": 4047,
      "middlet": 4048,
      "hou": 4049,
      "ray": 4050,
      "attempt": 4051,
      "surround": 4052,
      "discrimination": 4053,
      "gall": 4054,
      "sis": 4055,
      "sale": 4056,
      "icated": 4057,
      "keys": 4058,
      "sexy": 4059,
      "susp": 4060,
      "islamic": 4061,
      "kiss": 4062,
      "stal": 4063,
      "uries": 4064,
      "reduce": 4065,
      "auto": 4066,
      "appearance": 4067,
      "guests": 4068,
      "speaking": 4069,
      "bound": 4070,
      "thy": 4071,
      "inde": 4072,
      "lect": 4073,
      "pover": 4074,
      "millenn": 4075,
      "emergency": 4076,
      "politicians": 4077,
      "awkward": 4078,
      "iately": 4079,
      "sight": 4080,
      "dram": 4081,
      "addition": 4082,
      "considered": 4083,
      "grown": 4084,
      "mate": 4085,
      "ingred": 4086,
      "asian": 4087,
      "symp": 4088,
      "fund": 4089,
      "southern": 4090,
      "river": 4091,
      "recognize": 4092,
      "photographer": 4093,
      "cash": 4094,
      "mous": 4095,
      "sne": 4096,
      "residents": 4097,
      "clar": 4098,
      "cruise": 4099,
      "richard": 4100,
      "dess": 4101,
      "tree": 4102,
      "coverage": 4103,
      "happening": 4104,
      "strength": 4105,
      "traffic": 4106,
      "sudden": 4107,
      "iers": 4108,
      "contr": 4109,
      "flag": 4110,
      "icon": 4111,
      "tains": 4112,
      "lling": 4113,
      "interesting": 4114,
      "slams": 4115,
      "amazon": 4116,
      "ordinary": 4117,
      "28": 4118,
      "peoples": 4119,
      "bigger": 4120,
      "importance": 4121,
      "recovery": 4122,
      "struction": 4123,
      "mindfulness": 4124,
      "911": 4125,
      "dates": 4126,
      "nar": 4127,
      "knowing": 4128,
      "heads": 4129,
      "pieces": 4130,
      "deeply": 4131,
      "responsible": 4132,
      "devast": 4133,
      "gradu": 4134,
      "champion": 4135,
      "greg": 4136,
      "tober": 4137,
      "contribut": 4138,
      "presidency": 4139,
      "epic": 4140,
      "healthier": 4141,
      "stylelist": 4142,
      "congressional": 4143,
      "tempor": 4144,
      "concerns": 4145,
      "ferguson": 4146,
      "bass": 4147,
      "eve": 4148,
      "rates": 4149,
      "2011": 4150,
      "teaching": 4151,
      "fourth": 4152,
      "multiple": 4153,
      "bread": 4154,
      "stood": 4155,
      "jersey": 4156,
      "lucky": 4157,
      "outrage": 4158,
      "surgery": 4159,
      "lied": 4160,
      "resour": 4161,
      "emic": 4162,
      "lesb": 4163,
      "jewish": 4164,
      "dying": 4165,
      "ki": 4166,
      "ored": 4167,
      "bee": 4168,
      "bled": 4169,
      "fortunately": 4170,
      "gul": 4171,
      "puts": 4172,
      "memory": 4173,
      "values": 4174,
      "allowed": 4175,
      "example": 4176,
      "television": 4177,
      "disaster": 4178,
      "bare": 4179,
      "load": 4180,
      "ational": 4181,
      "doz": 4182,
      "upcoming": 4183,
      "clin": 4184,
      "everyday": 4185,
      "falls": 4186,
      "selling": 4187,
      "progressive": 4188,
      "reflect": 4189,
      "ceremony": 4190,
      "mes": 4191,
      "sames": 4192,
      "decade": 4193,
      "source": 4194,
      "herself": 4195,
      "built": 4196,
      "memorial": 4197,
      "pizza": 4198,
      "eness": 4199,
      "tray": 4200,
      "destinations": 4201,
      "title": 4202,
      "samesex": 4203,
      "iles": 4204,
      "adam": 4205,
      "western": 4206,
      "newly": 4207,
      "talent": 4208,
      "wrap": 4209,
      "congressman": 4210,
      "influence": 4211,
      "marketing": 4212,
      "michigan": 4213,
      "ebol": 4214,
      "lic": 4215,
      "berry": 4216,
      "rence": 4217,
      "supposed": 4218,
      "poses": 4219,
      "charlot": 4220,
      "italian": 4221,
      "aids": 4222,
      "hidden": 4223,
      "dut": 4224,
      "gap": 4225,
      "troll": 4226,
      "burn": 4227,
      "inspiring": 4228,
      "strikes": 4229,
      "unexpected": 4230,
      "inte": 4231,
      "acting": 4232,
      "seeking": 4233,
      "bird": 4234,
      "double": 4235,
      "raised": 4236,
      "require": 4237,
      "vulner": 4238,
      "pla": 4239,
      "brut": 4240,
      "india": 4241,
      "moral": 4242,
      "activity": 4243,
      "familiar": 4244,
      "radio": 4245,
      "agreement": 4246,
      "website": 4247,
      "highest": 4248,
      "si": 4249,
      "andon": 4250,
      "prec": 4251,
      "shoot": 4252,
      "humans": 4253,
      "perspective": 4254,
      "web": 4255,
      "dry": 4256,
      "chronic": 4257,
      "celebration": 4258,
      "patter": 4259,
      "excited": 4260,
      "dozens": 4261,
      "ror": 4262,
      "isan": 4263,
      "sean": 4264,
      "ridic": 4265,
      "thus": 4266,
      "virus": 4267,
      "activist": 4268,
      "included": 4269,
      "ked": 4270,
      "wy": 4271,
      "trig": 4272,
      "compe": 4273,
      "photograph": 4274,
      "buzz": 4275,
      "satis": 4276,
      "equal": 4277,
      "nba": 4278,
      "athy": 4279,
      "tale": 4280,
      "broke": 4281,
      "angry": 4282,
      "ami": 4283,
      "answers": 4284,
      "scary": 4285,
      "realized": 4286,
      "courage": 4287,
      "origin": 4288,
      "dor": 4289,
      "kno": 4290,
      "negot": 4291,
      "impossible": 4292,
      "resolutions": 4293,
      "meth": 4294,
      "brilli": 4295,
      "aves": 4296,
      "thrones": 4297,
      "leads": 4298,
      "individuals": 4299,
      "weak": 4300,
      "consequ": 4301,
      "firm": 4302,
      "warns": 4303,
      "elections": 4304,
      "cultural": 4305,
      "currently": 4306,
      "nap": 4307,
      "ita": 4308,
      "iconic": 4309,
      "estab": 4310,
      "complain": 4311,
      "tragedy": 4312,
      "tired": 4313,
      "wich": 4314,
      "doors": 4315,
      "democrat": 4316,
      "clearly": 4317,
      "neighborhood": 4318,
      "invent": 4319,
      "onna": 4320,
      "arts": 4321,
      "october": 4322,
      "terrorism": 4323,
      "frustr": 4324,
      "letting": 4325,
      "foundation": 4326,
      "appropriate": 4327,
      "ebola": 4328,
      "gag": 4329,
      "iders": 4330,
      "anymore": 4331,
      "perfectly": 4332,
      "emotions": 4333,
      "pull": 4334,
      "measure": 4335,
      "introduc": 4336,
      "29": 4337,
      "tag": 4338,
      "exhib": 4339,
      "cheap": 4340,
      "comedian": 4341,
      "suffering": 4342,
      "trouble": 4343,
      "biz": 4344,
      "theater": 4345,
      "ishing": 4346,
      "milk": 4347,
      "snack": 4348,
      "bridge": 4349,
      "70": 4350,
      "tap": 4351,
      "station": 4352,
      "arre": 4353,
      "acle": 4354,
      "canad": 4355,
      "sym": 4356,
      "incident": 4357,
      "tools": 4358,
      "aks": 4359,
      "areas": 4360,
      "posted": 4361,
      "victor": 4362,
      "alabama": 4363,
      "coll": 4364,
      "shell": 4365,
      "voices": 4366,
      "fis": 4367,
      "figh": 4368,
      "febr": 4369,
      "german": 4370,
      "caused": 4371,
      "risks": 4372,
      "habit": 4373,
      "february": 4374,
      "fires": 4375,
      "itors": 4376,
      "mos": 4377,
      "marco": 4378,
      "assist": 4379,
      "anced": 4380,
      "minds": 4381,
      "bla": 4382,
      "bye": 4383,
      "wage": 4384,
      "cance": 4385,
      "lifestyle": 4386,
      "journalists": 4387,
      "individual": 4388,
      "increasingly": 4389,
      "ukraine": 4390,
      "integr": 4391,
      "sem": 4392,
      "adm": 4393,
      "upt": 4394,
      "drama": 4395,
      "driver": 4396,
      "twice": 4397,
      "defend": 4398,
      "candy": 4399,
      "taxes": 4400,
      "ladies": 4401,
      "memories": 4402,
      "december": 4403,
      "commerc": 4404,
      "picks": 4405,
      "lived": 4406,
      "threats": 4407,
      "dramatic": 4408,
      "iation": 4409,
      "tend": 4410,
      "agre": 4411,
      "acknow": 4412,
      "creat": 4413,
      "tonight": 4414,
      "accompl": 4415,
      "dun": 4416,
      "wist": 4417,
      "joke": 4418,
      "speed": 4419,
      "desper": 4420,
      "violent": 4421,
      "constantly": 4422,
      "exclusive": 4423,
      "accep": 4424,
      "honey": 4425,
      "hey": 4426,
      "contain": 4427,
      "ruling": 4428,
      "status": 4429,
      "customers": 4430,
      "relief": 4431,
      "shift": 4432,
      "gown": 4433,
      "folks": 4434,
      "adventure": 4435,
      "quarter": 4436,
      "fruit": 4437,
      "flying": 4438,
      "pand": 4439,
      "begins": 4440,
      "kevin": 4441,
      "enda": 4442,
      "placed": 4443,
      "stores": 4444,
      "basic": 4445,
      "holds": 4446,
      "solid": 4447,
      "lash": 4448,
      "utter": 4449,
      "saved": 4450,
      "engers": 4451,
      "sleeping": 4452,
      "subst": 4453,
      "opportunities": 4454,
      "requires": 4455,
      "district": 4456,
      "founder": 4457,
      "tam": 4458,
      "inaug": 4459,
      "erto": 4460,
      "umes": 4461,
      "spin": 4462,
      "mostly": 4463,
      "flash": 4464,
      "cycle": 4465,
      "frequ": 4466,
      "criticism": 4467,
      "palestin": 4468,
      "poverty": 4469,
      "31": 4470,
      "dated": 4471,
      "formed": 4472,
      "endor": 4473,
      "sue": 4474,
      "romantic": 4475,
      "towards": 4476,
      "william": 4477,
      "dollars": 4478,
      "bold": 4479,
      "fits": 4480,
      "request": 4481,
      "icy": 4482,
      "ute": 4483,
      "harder": 4484,
      "spoke": 4485,
      "surprised": 4486,
      "israeli": 4487,
      "controversy": 4488,
      "advocates": 4489,
      "demonstr": 4490,
      "premiere": 4491,
      "nast": 4492,
      "iment": 4493,
      "heim": 4494,
      "mach": 4495,
      "proposed": 4496,
      "prices": 4497,
      "bra": 4498,
      "bron": 4499,
      "epide": 4500,
      "phones": 4501,
      "calm": 4502,
      "fallon": 4503,
      "mcc": 4504,
      "fellow": 4505,
      "info": 4506,
      "adel": 4507,
      "noah": 4508,
      "expl": 4509,
      "bless": 4510,
      "prepar": 4511,
      "serving": 4512,
      "196": 4513,
      "argu": 4514,
      "deals": 4515,
      "abandon": 4516,
      "tea": 4517,
      "syl": 4518,
      "romney": 4519,
      "afghanistan": 4520,
      "fell": 4521,
      "tears": 4522,
      "commission": 4523,
      "focused": 4524,
      "mens": 4525,
      "sort": 4526,
      "unte": 4527,
      "includes": 4528,
      "mistake": 4529,
      "prepared": 4530,
      "arizon": 4531,
      "beck": 4532,
      "unless": 4533,
      "shed": 4534,
      "votes": 4535,
      "cars": 4536,
      "airline": 4537,
      "concerned": 4538,
      "kent": 4539,
      "pence": 4540,
      "emmy": 4541,
      "transform": 4542,
      "latin": 4543,
      "sessions": 4544,
      "heavy": 4545,
      "bathroom": 4546,
      "legislation": 4547,
      "served": 4548,
      "stewart": 4549,
      "seemed": 4550,
      "survive": 4551,
      "egg": 4552,
      "hook": 4553,
      "entially": 4554,
      "blind": 4555,
      "childs": 4556,
      "ette": 4557,
      "journalist": 4558,
      "domin": 4559,
      "challenging": 4560,
      "survivors": 4561,
      "brooklyn": 4562,
      "diabet": 4563,
      "fas": 4564,
      "attract": 4565,
      "chat": 4566,
      "cooper": 4567,
      "marry": 4568,
      "designed": 4569,
      "immediately": 4570,
      "opinion": 4571,
      "organizations": 4572,
      "orange": 4573,
      "bean": 4574,
      "moved": 4575,
      "determin": 4576,
      "boom": 4577,
      "crip": 4578,
      "marath": 4579,
      "theyve": 4580,
      "basket": 4581,
      "panic": 4582,
      "uber": 4583,
      "added": 4584,
      "scot": 4585,
      "emails": 4586,
      "soft": 4587,
      "brazil": 4588,
      "cath": 4589,
      "wore": 4590,
      "peach": 4591,
      "compu": 4592,
      "indian": 4593,
      "encing": 4594,
      "transition": 4595,
      "population": 4596,
      "traum": 4597,
      "breastfeeding": 4598,
      "hawaii": 4599,
      "egy": 4600,
      "argum": 4601,
      "iphone": 4602,
      "knowledge": 4603,
      "counsel": 4604,
      "posts": 4605,
      "celebrates": 4606,
      "confidence": 4607,
      "reminder": 4608,
      "initi": 4609,
      "pets": 4610,
      "math": 4611,
      "grab": 4612,
      "ously": 4613,
      "harris": 4614,
      "orland": 4615,
      "trum": 4616,
      "rescue": 4617,
      "fran": 4618,
      "parks": 4619,
      "fearless": 4620,
      "religion": 4621,
      "explore": 4622,
      "mountain": 4623,
      "ocean": 4624,
      "chemical": 4625,
      "memo": 4626,
      "puerto": 4627,
      "highlights": 4628,
      "falling": 4629,
      "miley": 4630,
      "cats": 4631,
      "ius": 4632,
      "ware": 4633,
      "ensure": 4634,
      "seth": 4635,
      "urban": 4636,
      "aller": 4637,
      "agenda": 4638,
      "grant": 4639,
      "senior": 4640,
      "purch": 4641,
      "announces": 4642,
      "records": 4643,
      "pipe": 4644,
      "tons": 4645,
      "renew": 4646,
      "ime": 4647,
      "usa": 4648,
      "outfit": 4649,
      "azz": 4650,
      "huffpoststyle": 4651,
      "magical": 4652,
      "philip": 4653,
      "dys": 4654,
      "dirty": 4655,
      "toms": 4656,
      "lobby": 4657,
      "smile": 4658,
      "struggling": 4659,
      "500": 4660,
      "bb": 4661,
      "bom": 4662,
      "escape": 4663,
      "army": 4664,
      "handle": 4665,
      "slam": 4666,
      "mexican": 4667,
      "volunte": 4668,
      "confirmed": 4669,
      "speaks": 4670,
      "sme": 4671,
      "retail": 4672,
      "anyway": 4673,
      "2018": 4674,
      "stands": 4675,
      "causes": 4676,
      "patrio": 4677,
      "sandwich": 4678,
      "latino": 4679,
      "cyrus": 4680,
      "activities": 4681,
      "alternative": 4682,
      "retirement": 4683,
      "infect": 4684,
      "actual": 4685,
      "corn": 4686,
      "killer": 4687,
      "promises": 4688,
      "davis": 4689,
      "scenes": 4690,
      "fda": 4691,
      "gate": 4692,
      "gian": 4693,
      "gaz": 4694,
      "advert": 4695,
      "shr": 4696,
      "nomination": 4697,
      "supporting": 4698,
      "rumors": 4699,
      "worried": 4700,
      "theory": 4701,
      "ateful": 4702,
      "dishes": 4703,
      "brothers": 4704,
      "nightm": 4705,
      "anthony": 4706,
      "bottom": 4707,
      "ai": 4708,
      "robe": 4709,
      "colorado": 4710,
      "experienced": 4711,
      "resolution": 4712,
      "sav": 4713,
      "bloom": 4714,
      "boyfriend": 4715,
      "concert": 4716,
      "camera": 4717,
      "independence": 4718,
      "baseball": 4719,
      "mobile": 4720,
      "league": 4721,
      "okay": 4722,
      "cyber": 4723,
      "advant": 4724,
      "correct": 4725,
      "middleton": 4726,
      "pm": 4727,
      "rif": 4728,
      "solutions": 4729,
      "acade": 4730,
      "condem": 4731,
      "proves": 4732,
      "actors": 4733,
      "corner": 4734,
      "vogue": 4735,
      "defends": 4736,
      "girlfriend": 4737,
      "refugee": 4738,
      "veteran": 4739,
      "brutal": 4740,
      "academy": 4741,
      "jason": 4742,
      "region": 4743,
      "increased": 4744,
      "heroes": 4745,
      "launched": 4746,
      "consumers": 4747,
      "barrass": 4748,
      "lesbian": 4749,
      "ridiculous": 4750,
      "reward": 4751,
      "tries": 4752,
      "posing": 4753,
      "isters": 4754,
      "notice": 4755,
      "otes": 4756,
      "valu": 4757,
      "virt": 4758,
      "universe": 4759,
      "mcdonald": 4760,
      "dropped": 4761,
      "productive": 4762,
      "ika": 4763,
      "horror": 4764,
      "ibe": 4765,
      "thent": 4766,
      "haw": 4767,
      "pod": 4768,
      "teams": 4769,
      "apps": 4770,
      "quiz": 4771,
      "authent": 4772,
      "collabor": 4773,
      "limited": 4774,
      "citys": 4775,
      "rachel": 4776,
      "umb": 4777,
      "embarrass": 4778,
      "2020": 4779,
      "easily": 4780,
      "kimmel": 4781,
      "billiona": 4782,
      "gratitude": 4783,
      "nit": 4784,
      "theat": 4785,
      "olic": 4786,
      "illing": 4787,
      "maher": 4788,
      "mention": 4789,
      "conditions": 4790,
      "floor": 4791,
      "andrew": 4792,
      "plast": 4793,
      "yard": 4794,
      "asing": 4795,
      "ctic": 4796,
      "apt": 4797,
      "choo": 4798,
      "warming": 4799,
      "northern": 4800,
      "consist": 4801,
      "pollster": 4802,
      "audience": 4803,
      "waste": 4804,
      "diabetes": 4805,
      "sin": 4806,
      "sees": 4807,
      "ancient": 4808,
      "standard": 4809,
      "explos": 4810,
      "signed": 4811,
      "jordan": 4812,
      "exciting": 4813,
      "thomas": 4814,
      "orlando": 4815,
      "pap": 4816,
      "accur": 4817,
      "igen": 4818,
      "dose": 4819,
      "eleph": 4820,
      "immigrant": 4821,
      "marathon": 4822,
      "bond": 4823,
      "hann": 4824,
      "reaction": 4825,
      "ache": 4826,
      "cate": 4827,
      "peter": 4828,
      "cris": 4829,
      "younger": 4830,
      "bullying": 4831,
      "silver": 4832,
      "damage": 4833,
      "lifes": 4834,
      "epidemic": 4835,
      "fred": 4836,
      "stret": 4837,
      "icing": 4838,
      "corrup": 4839,
      "bizarre": 4840,
      "sylvan": 4841,
      "arizona": 4842,
      "myth": 4843,
      "manage": 4844,
      "grateful": 4845,
      "jeb": 4846,
      "jet": 4847,
      "tests": 4848,
      "burger": 4849,
      "associated": 4850,
      "announcement": 4851,
      "pennsylvan": 4852,
      "sneak": 4853,
      "conspir": 4854,
      "closed": 4855,
      "staying": 4856,
      "ellen": 4857,
      "luxury": 4858,
      "brilliant": 4859,
      "dancing": 4860,
      "toxic": 4861,
      "foo": 4862,
      "workplace": 4863,
      "covering": 4864,
      "fails": 4865,
      "hunger": 4866,
      "employ": 4867,
      "offered": 4868,
      "citizen": 4869,
      "previously": 4870,
      "entrepreneur": 4871,
      "complicated": 4872,
      "temporary": 4873,
      "ebay": 4874,
      "ji": 4875,
      "mates": 4876,
      "sides": 4877,
      "possibly": 4878,
      "feminist": 4879,
      "eld": 4880,
      "tied": 4881,
      "covers": 4882,
      "lled": 4883,
      "grief": 4884,
      "presents": 4885,
      "juli": 4886,
      "destroy": 4887,
      "rolling": 4888,
      "rapper": 4889,
      "jackson": 4890,
      "weapons": 4891,
      "oreg": 4892,
      "twist": 4893,
      "aside": 4894,
      "oph": 4895,
      "creates": 4896,
      "limit": 4897,
      "listening": 4898,
      "italy": 4899,
      "occas": 4900,
      "cuba": 4901,
      "allows": 4902,
      "kins": 4903,
      "lum": 4904,
      "oo": 4905,
      "wave": 4906,
      "zing": 4907,
      "grade": 4908,
      "womans": 4909,
      "rah": 4910,
      "headed": 4911,
      "connell": 4912,
      "subject": 4913,
      "kentuck": 4914,
      "gment": 4915,
      "cruc": 4916,
      "prefer": 4917,
      "2010": 4918,
      "styles": 4919,
      "197": 4920,
      "talked": 4921,
      "humanity": 4922,
      "protection": 4923,
      "inspire": 4924,
      "ghost": 4925,
      "mour": 4926,
      "qa": 4927,
      "option": 4928,
      "endors": 4929,
      "management": 4930,
      "somehow": 4931,
      "germany": 4932,
      "treated": 4933,
      "temper": 4934,
      "considering": 4935,
      "endorse": 4936,
      "90": 4937,
      "pak": 4938,
      "alz": 4939,
      "watched": 4940,
      "confess": 4941,
      "cleaning": 4942,
      "consumer": 4943,
      "consequences": 4944,
      "aust": 4945,
      "mun": 4946,
      "rit": 4947,
      "wound": 4948,
      "inf": 4949,
      "sting": 4950,
      "amend": 4951,
      "roc": 4952,
      "abroad": 4953,
      "shad": 4954,
      "boat": 4955,
      "ller": 4956,
      "businesses": 4957,
      "previous": 4958,
      "bought": 4959,
      "hide": 4960,
      "pts": 4961,
      "neck": 4962,
      "farm": 4963,
      "speaker": 4964,
      "diagnosed": 4965,
      "garden": 4966,
      "choosing": 4967,
      "pill": 4968,
      "sport": 4969,
      "chest": 4970,
      "ivals": 4971,
      "brave": 4972,
      "lists": 4973,
      "huffpollster": 4974,
      "capito": 4975,
      "analy": 4976,
      "mitt": 4977,
      "aving": 4978,
      "lifetime": 4979,
      "worker": 4980,
      "flat": 4981,
      "score": 4982,
      "instein": 4983,
      "joined": 4984,
      "markets": 4985,
      "roots": 4986,
      "vulnerable": 4987,
      "fier": 4988,
      "issa": 4989,
      "logist": 4990,
      "celebrated": 4991,
      "sites": 4992,
      "reached": 4993,
      "wiscons": 4994,
      "entertainment": 4995,
      "bald": 4996,
      "bann": 4997,
      "nis": 4998,
      "nobody": 4999,
      "mood": 5000,
      "uration": 5001,
      "optim": 5002,
      "cot": 5003,
      "wardrobe": 5004,
      "spokes": 5005,
      "houses": 5006,
      "gut": 5007,
      "hang": 5008,
      "task": 5009,
      "newsp": 5010,
      "manager": 5011,
      "span": 5012,
      "spouse": 5013,
      "otherwise": 5014,
      "skip": 5015,
      "blogger": 5016,
      "tight": 5017,
      "healing": 5018,
      "udes": 5019,
      "globe": 5020,
      "snap": 5021,
      "mcconnell": 5022,
      "scientific": 5023,
      "profession": 5024,
      "housing": 5025,
      "mouth": 5026,
      "lone": 5027,
      "mue": 5028,
      "vy": 5029,
      "alty": 5030,
      "asp": 5031,
      "deport": 5032,
      "indic": 5033,
      "intent": 5034,
      "micro": 5035,
      "aham": 5036,
      "destination": 5037,
      "smoking": 5038,
      "heimers": 5039,
      "rice": 5040,
      "ule": 5041,
      "allies": 5042,
      "tricks": 5043,
      "ula": 5044,
      "cope": 5045,
      "yester": 5046,
      "maria": 5047,
      "strip": 5048,
      "shocking": 5049,
      "bills": 5050,
      "painting": 5051,
      "developing": 5052,
      "characters": 5053,
      "reporters": 5054,
      "jesus": 5055,
      "alzheimers": 5056,
      "som": 5057,
      "remark": 5058,
      "toy": 5059,
      "usal": 5060,
      "reser": 5061,
      "illustr": 5062,
      "meals": 5063,
      "agon": 5064,
      "kings": 5065,
      "landsc": 5066,
      "islands": 5067,
      "drinks": 5068,
      "dict": 5069,
      "rant": 5070,
      "tun": 5071,
      "chain": 5072,
      "canada": 5073,
      "epa": 5074,
      "surge": 5075,
      "treas": 5076,
      "noon": 5077,
      "backs": 5078,
      "archite": 5079,
      "prevention": 5080,
      "square": 5081,
      "bacon": 5082,
      "attr": 5083,
      "chap": 5084,
      "unfortunately": 5085,
      "illa": 5086,
      "agues": 5087,
      "colleg": 5088,
      "comey": 5089,
      "jected": 5090,
      "dipl": 5091,
      "valley": 5092,
      "appeal": 5093,
      "delay": 5094,
      "cookies": 5095,
      "strategies": 5096,
      "capitol": 5097,
      "inary": 5098,
      "visiting": 5099,
      "woods": 5100,
      "resources": 5101,
      "method": 5102,
      "commercial": 5103,
      "diplom": 5104,
      "kend": 5105,
      "resort": 5106,
      "fool": 5107,
      "drome": 5108,
      "cheer": 5109,
      "stylish": 5110,
      "engine": 5111,
      "define": 5112,
      "pushing": 5113,
      "conservatives": 5114,
      "mystery": 5115,
      "continued": 5116,
      "symptoms": 5117,
      "lope": 5118,
      "heal": 5119,
      "notes": 5120,
      "direction": 5121,
      "globes": 5122,
      "costume": 5123,
      "feature": 5124,
      "lawyers": 5125,
      "bucks": 5126,
      "machine": 5127,
      "dit": 5128,
      "lit": 5129,
      "sts": 5130,
      "esy": 5131,
      "labe": 5132,
      "bry": 5133,
      "homemade": 5134,
      "tweeted": 5135,
      "personality": 5136,
      "houston": 5137,
      "jury": 5138,
      "tort": 5139,
      "portra": 5140,
      "bern": 5141,
      "attle": 5142,
      "aska": 5143,
      "potato": 5144,
      "australia": 5145,
      "vaccine": 5146,
      "pennsylvania": 5147,
      "ano": 5148,
      "stup": 5149,
      "apply": 5150,
      "myths": 5151,
      "spots": 5152,
      "arrived": 5153,
      "custody": 5154,
      "frozen": 5155,
      "flee": 5156,
      "enforce": 5157,
      "agers": 5158,
      "cles": 5159,
      "werent": 5160,
      "messages": 5161,
      "drops": 5162,
      "professor": 5163,
      "circum": 5164,
      "competition": 5165,
      "syndrome": 5166,
      "ox": 5167,
      "theme": 5168,
      "haz": 5169,
      "contract": 5170,
      "poe": 5171,
      "jose": 5172,
      "stein": 5173,
      "wheel": 5174,
      "feder": 5175,
      "broadway": 5176,
      "association": 5177,
      "column": 5178,
      "negoti": 5179,
      "egypt": 5180,
      "kentucky": 5181,
      "fame": 5182,
      "thro": 5183,
      "aca": 5184,
      "manh": 5185,
      "2000": 5186,
      "happier": 5187,
      "christie": 5188,
      "releases": 5189,
      "expectations": 5190,
      "severe": 5191,
      "launches": 5192,
      "greece": 5193,
      "oregon": 5194,
      "80": 5195,
      "toll": 5196,
      "accounts": 5197,
      "ros": 5198,
      "tery": 5199,
      "chances": 5200,
      "testing": 5201,
      "cutting": 5202,
      "flavor": 5203,
      "radical": 5204,
      "247": 5205,
      "diagnosis": 5206,
      "authentic": 5207,
      "wisconsin": 5208,
      "rough": 5209,
      "wears": 5210,
      "abilities": 5211,
      "antig": 5212,
      "plants": 5213,
      "aint": 5214,
      "sheer": 5215,
      "desire": 5216,
      "standards": 5217,
      "rush": 5218,
      "daniel": 5219,
      "schum": 5220,
      "concern": 5221,
      "independent": 5222,
      "flowers": 5223,
      "cia": 5224,
      "laur": 5225,
      "laure": 5226,
      "acted": 5227,
      "ictions": 5228,
      "morrow": 5229,
      "motherhood": 5230,
      "salad": 5231,
      "elimin": 5232,
      "pulled": 5233,
      "employee": 5234,
      "jane": 5235,
      "likes": 5236,
      "disappoint": 5237,
      "runway": 5238,
      "katy": 5239,
      "fold": 5240,
      "offering": 5241,
      "strain": 5242,
      "estate": 5243,
      "funds": 5244,
      "summit": 5245,
      "massa": 5246,
      "panel": 5247,
      "raises": 5248,
      "liberal": 5249,
      "suddenly": 5250,
      "illegal": 5251,
      "unve": 5252,
      "opposition": 5253,
      "ucker": 5254,
      "produce": 5255,
      "bull": 5256,
      "privile": 5257,
      "troops": 5258,
      "believed": 5259,
      "navig": 5260,
      "ignore": 5261,
      "beyonc": 5262,
      "infl": 5263,
      "edition": 5264,
      "comic": 5265,
      "combat": 5266,
      "colla": 5267,
      "viewed": 5268,
      "encies": 5269,
      "designers": 5270,
      "shootings": 5271,
      "documents": 5272,
      "fabulous": 5273,
      "36": 5274,
      "zone": 5275,
      "tomorrow": 5276,
      "leans": 5277,
      "ament": 5278,
      "rod": 5279,
      "projects": 5280,
      "suits": 5281,
      "porn": 5282,
      "reduc": 5283,
      "scale": 5284,
      "misconduct": 5285,
      "investment": 5286,
      "sweat": 5287,
      "cocktail": 5288,
      "plastic": 5289,
      "aar": 5290,
      "kh": 5291,
      "inno": 5292,
      "beloved": 5293,
      "courts": 5294,
      "closet": 5295,
      "relative": 5296,
      "confirm": 5297,
      "jokes": 5298,
      "bour": 5299,
      "kansas": 5300,
      "rating": 5301,
      "stig": 5302,
      "ques": 5303,
      "stranger": 5304,
      "shots": 5305,
      "miami": 5306,
      "walked": 5307,
      "meets": 5308,
      "injury": 5309,
      "cocktails": 5310,
      "tattoo": 5311,
      "indeed": 5312,
      "basketball": 5313,
      "eless": 5314,
      "english": 5315,
      "anka": 5316,
      "solve": 5317,
      "responds": 5318,
      "explained": 5319,
      "recommend": 5320,
      "conspiracy": 5321,
      "45": 5322,
      "ani": 5323,
      "elected": 5324,
      "winners": 5325,
      "window": 5326,
      "1000": 5327,
      "towns": 5328,
      "eggs": 5329,
      "colleges": 5330,
      "toys": 5331,
      "hole": 5332,
      "map": 5333,
      "antis": 5334,
      "shine": 5335,
      "shirt": 5336,
      "brands": 5337,
      "mars": 5338,
      "goodbye": 5339,
      "ugly": 5340,
      "engage": 5341,
      "confident": 5342,
      "committed": 5343,
      "deserves": 5344,
      "establish": 5345,
      "pandemic": 5346,
      "inauguration": 5347,
      "fi": 5348,
      "geta": 5349,
      "evol": 5350,
      "council": 5351,
      "dealing": 5352,
      "documented": 5353,
      "anticip": 5354,
      "described": 5355,
      "punch": 5356,
      "concl": 5357,
      "yel": 5358,
      "calories": 5359,
      "painful": 5360,
      "systems": 5361,
      "loud": 5362,
      "korean": 5363,
      "embrac": 5364,
      "golf": 5365,
      "mut": 5366,
      "belong": 5367,
      "hoping": 5368,
      "mail": 5369,
      "prop": 5370,
      "struck": 5371,
      "mommy": 5372,
      "longterm": 5373,
      "fundam": 5374,
      "otic": 5375,
      "trevor": 5376,
      "truck": 5377,
      "empty": 5378,
      "commitment": 5379,
      "bump": 5380,
      "kne": 5381,
      "saf": 5382,
      "orleans": 5383,
      "neither": 5384,
      "trag": 5385,
      "uten": 5386,
      "fried": 5387,
      "meyers": 5388,
      "astic": 5389,
      "disrup": 5390,
      "wellness": 5391,
      "walmart": 5392,
      "ception": 5393,
      "crimes": 5394,
      "demands": 5395,
      "greek": 5396,
      "believes": 5397,
      "chaos": 5398,
      "satisf": 5399,
      "symbol": 5400,
      "catholic": 5401,
      "advantage": 5402,
      "amendment": 5403,
      "brow": 5404,
      "gig": 5405,
      "kur": 5406,
      "rhe": 5407,
      "offensive": 5408,
      "estim": 5409,
      "interior": 5410,
      "genet": 5411,
      "bikin": 5412,
      "stronger": 5413,
      "physic": 5414,
      "survivor": 5415,
      "platform": 5416,
      "yesterday": 5417,
      "nity": 5418,
      "whis": 5419,
      "overall": 5420,
      "ension": 5421,
      "writ": 5422,
      "england": 5423,
      "relations": 5424,
      "walker": 5425,
      "ultimately": 5426,
      "pumpkin": 5427,
      "atlanta": 5428,
      "podcast": 5429,
      "remove": 5430,
      "reven": 5431,
      "alle": 5432,
      "editors": 5433,
      "nels": 5434,
      "rescu": 5435,
      "aggress": 5436,
      "inequality": 5437,
      "berts": 5438,
      "scal": 5439,
      "phr": 5440,
      "basically": 5441,
      "suspected": 5442,
      "apartment": 5443,
      "resistance": 5444,
      "impeach": 5445,
      "outfits": 5446,
      "ppers": 5447,
      "passengers": 5448,
      "occup": 5449,
      "shake": 5450,
      "survival": 5451,
      "protecting": 5452,
      "incredibly": 5453,
      "injuries": 5454,
      "minimum": 5455,
      "aking": 5456,
      "gos": 5457,
      "emma": 5458,
      "everybody": 5459,
      "backed": 5460,
      "practices": 5461,
      "producer": 5462,
      "conversations": 5463,
      "dollar": 5464,
      "shutdown": 5465,
      "fantasy": 5466,
      "dete": 5467,
      "affects": 5468,
      "drunk": 5469,
      "cheating": 5470,
      "hypo": 5471,
      "nd": 5472,
      "sele": 5473,
      "section": 5474,
      "elle": 5475,
      "intense": 5476,
      "hamp": 5477,
      "struggles": 5478,
      "sheriff": 5479,
      "ari": 5480,
      "prize": 5481,
      "craf": 5482,
      "afternoon": 5483,
      "joins": 5484,
      "anywhere": 5485,
      "jewel": 5486,
      "rico": 5487,
      "jerry": 5488,
      "settlement": 5489,
      "schedul": 5490,
      "plot": 5491,
      "stere": 5492,
      "fewer": 5493,
      "frag": 5494,
      "identified": 5495,
      "scared": 5496,
      "thrill": 5497,
      "regret": 5498,
      "runs": 5499,
      "succeed": 5500,
      "struct": 5501,
      "adviser": 5502,
      "obvious": 5503,
      "admits": 5504,
      "luc": 5505,
      "ania": 5506,
      "lete": 5507,
      "lemon": 5508,
      "acre": 5509,
      "roast": 5510,
      "whom": 5511,
      "uss": 5512,
      "quo": 5513,
      "waters": 5514,
      "ingredients": 5515,
      "liest": 5516,
      "feld": 5517,
      "oppon": 5518,
      "plement": 5519,
      "findings": 5520,
      "burg": 5521,
      "production": 5522,
      "developed": 5523,
      "overwhelming": 5524,
      "kristen": 5525,
      "originally": 5526,
      "stupid": 5527,
      "gab": 5528,
      "vast": 5529,
      "edge": 5530,
      "user": 5531,
      "tony": 5532,
      "genius": 5533,
      "profound": 5534,
      "governments": 5535,
      "angers": 5536,
      "required": 5537,
      "zoo": 5538,
      "cosby": 5539,
      "dust": 5540,
      "aly": 5541,
      "asia": 5542,
      "conven": 5543,
      "theyll": 5544,
      "shown": 5545,
      "viet": 5546,
      "ification": 5547,
      "threatens": 5548,
      "loses": 5549,
      "tourists": 5550,
      "featured": 5551,
      "constant": 5552,
      "sources": 5553,
      "extremely": 5554,
      "punish": 5555,
      "uations": 5556,
      "icles": 5557,
      "ching": 5558,
      "iron": 5559,
      "channel": 5560,
      "mploy": 5561,
      "kindness": 5562,
      "philadel": 5563,
      "reminds": 5564,
      "dessert": 5565,
      "philadelph": 5566,
      "reck": 5567,
      "lean": 5568,
      "chess": 5569,
      "enders": 5570,
      "okla": 5571,
      "ause": 5572,
      "interested": 5573,
      "pollut": 5574,
      "lynn": 5575,
      "rainbow": 5576,
      "compared": 5577,
      "pakistan": 5578,
      "shadow": 5579,
      "ey": 5580,
      "aran": 5581,
      "isol": 5582,
      "heels": 5583,
      "unusual": 5584,
      "shire": 5585,
      "somewhere": 5586,
      "creep": 5587,
      "carib": 5588,
      "lawmaker": 5589,
      "baltim": 5590,
      "grew": 5591,
      "factors": 5592,
      "paint": 5593,
      "bags": 5594,
      "variety": 5595,
      "mitch": 5596,
      "narr": 5597,
      "pas": 5598,
      "rig": 5599,
      "und": 5600,
      "distur": 5601,
      "electric": 5602,
      "typical": 5603,
      "canadian": 5604,
      "pipeline": 5605,
      "mcdonalds": 5606,
      "dim": 5607,
      "ries": 5608,
      "veh": 5609,
      "trips": 5610,
      "pros": 5611,
      "spar": 5612,
      "privacy": 5613,
      "reporting": 5614,
      "nominees": 5615,
      "von": 5616,
      "quir": 5617,
      "phy": 5618,
      "collective": 5619,
      "meaningful": 5620,
      "increasing": 5621,
      "directly": 5622,
      "creativity": 5623,
      "stereo": 5624,
      "hud": 5625,
      "enger": 5626,
      "resol": 5627,
      "centers": 5628,
      "stressful": 5629,
      "dining": 5630,
      "discussion": 5631,
      "australian": 5632,
      "japanese": 5633,
      "constitutional": 5634,
      "computer": 5635,
      "schumer": 5636,
      "gage": 5637,
      "ongoing": 5638,
      "outbreak": 5639,
      "ulting": 5640,
      "magn": 5641,
      "yemen": 5642,
      "sauce": 5643,
      "inevit": 5644,
      "parad": 5645,
      "salt": 5646,
      "failing": 5647,
      "silent": 5648,
      "hs": 5649,
      "rab": 5650,
      "stro": 5651,
      "dozen": 5652,
      "indiana": 5653,
      "ashes": 5654,
      "presidentelect": 5655,
      "colleagues": 5656,
      "interests": 5657,
      "terrifying": 5658,
      "cookie": 5659,
      "faster": 5660,
      "figures": 5661,
      "aims": 5662,
      "zero": 5663,
      "charlottes": 5664,
      "nightmare": 5665,
      "300": 5666,
      "90s": 5667,
      "cakes": 5668,
      "enthus": 5669,
      "fees": 5670,
      "oppos": 5671,
      "endless": 5672,
      "plug": 5673,
      "grie": 5674,
      "presence": 5675,
      "caucus": 5676,
      "element": 5677,
      "charlie": 5678,
      "ticket": 5679,
      "regardless": 5680,
      "shelter": 5681,
      "oklahom": 5682,
      "bans": 5683,
      "naz": 5684,
      "encounter": 5685,
      "itation": 5686,
      "seattle": 5687,
      "fet": 5688,
      "boot": 5689,
      "colors": 5690,
      "vows": 5691,
      "treats": 5692,
      "glasses": 5693,
      "village": 5694,
      "minority": 5695,
      "billionaire": 5696,
      "manhatt": 5697,
      "bors": 5698,
      "bachel": 5699,
      "flip": 5700,
      "enjo": 5701,
      "pel": 5702,
      "haun": 5703,
      "convic": 5704,
      "matic": 5705,
      "denied": 5706,
      "beaches": 5707,
      "nails": 5708,
      "circumst": 5709,
      "bin": 5710,
      "mere": 5711,
      "toast": 5712,
      "itarian": 5713,
      "graham": 5714,
      "guaran": 5715,
      "apology": 5716,
      "affected": 5717,
      "anchor": 5718,
      "finger": 5719,
      "millennials": 5720,
      "mueller": 5721,
      "writers": 5722,
      "cc": 5723,
      "ditch": 5724,
      "pure": 5725,
      "wan": 5726,
      "lover": 5727,
      "uncertain": 5728,
      "urge": 5729,
      "crew": 5730,
      "monum": 5731,
      "medal": 5732,
      "hopeful": 5733,
      "solar": 5734,
      "grocer": 5735,
      "lab": 5736,
      "slight": 5737,
      "weinstein": 5738,
      "nold": 5739,
      "poison": 5740,
      "gray": 5741,
      "worldwide": 5742,
      "charles": 5743,
      "celebs": 5744,
      "kerry": 5745,
      "sanctions": 5746,
      "chrissy": 5747,
      "entirely": 5748,
      "sustainable": 5749,
      "fw": 5750,
      "till": 5751,
      "alo": 5752,
      "secon": 5753,
      "forgotten": 5754,
      "adding": 5755,
      "ulted": 5756,
      "brian": 5757,
      "identify": 5758,
      "preced": 5759,
      "humor": 5760,
      "wondering": 5761,
      "repeated": 5762,
      "bip": 5763,
      "dnc": 5764,
      "rival": 5765,
      "sending": 5766,
      "alan": 5767,
      "secure": 5768,
      "neil": 5769,
      "uls": 5770,
      "tast": 5771,
      "soda": 5772,
      "mort": 5773,
      "experiment": 5774,
      "trees": 5775,
      "nonprofit": 5776,
      "acceptance": 5777,
      "describe": 5778,
      "prosecutors": 5779,
      "bottle": 5780,
      "caribbean": 5781,
      "charlottesville": 5782,
      "swed": 5783,
      "irs": 5784,
      "degree": 5785,
      "outdoor": 5786,
      "subs": 5787,
      "quotes": 5788,
      "grass": 5789,
      "pressing": 5790,
      "disput": 5791,
      "intention": 5792,
      "visible": 5793,
      "diam": 5794,
      "hosts": 5795,
      "larger": 5796,
      "unemploy": 5797,
      "laughter": 5798,
      "bridal": 5799,
      "baltimore": 5800,
      "resil": 5801,
      "conce": 5802,
      "noticed": 5803,
      "foster": 5804,
      "charity": 5805,
      "missour": 5806,
      "pays": 5807,
      "horse": 5808,
      "clients": 5809,
      "vegetables": 5810,
      "appreciate": 5811,
      "beliefs": 5812,
      "crucial": 5813,
      "75": 5814,
      "kas": 5815,
      "erous": 5816,
      "icient": 5817,
      "vegan": 5818,
      "loan": 5819,
      "lovers": 5820,
      "allas": 5821,
      "creator": 5822,
      "fulfill": 5823,
      "carson": 5824,
      "limits": 5825,
      "teenage": 5826,
      "strateg": 5827,
      "targeted": 5828,
      "separate": 5829,
      "capture": 5830,
      "valuable": 5831,
      "bble": 5832,
      "vas": 5833,
      "vine": 5834,
      "erie": 5835,
      "anno": 5836,
      "anthem": 5837,
      "ara": 5838,
      "herit": 5839,
      "matthe": 5840,
      "passing": 5841,
      "species": 5842,
      "factor": 5843,
      "swing": 5844,
      "surprisingly": 5845,
      "devastating": 5846,
      "smell": 5847,
      "tragic": 5848,
      "ml": 5849,
      "wow": 5850,
      "ilton": 5851,
      "crying": 5852,
      "prem": 5853,
      "carbon": 5854,
      "location": 5855,
      "palestinian": 5856,
      "banned": 5857,
      "ique": 5858,
      "rips": 5859,
      "thre": 5860,
      "stan": 5861,
      "tos": 5862,
      "powers": 5863,
      "ideal": 5864,
      "perman": 5865,
      "finish": 5866,
      "filed": 5867,
      "soup": 5868,
      "gluten": 5869,
      "profile": 5870,
      "approved": 5871,
      "2008": 5872,
      "smoo": 5873,
      "seconds": 5874,
      "bone": 5875,
      "dallas": 5876,
      "groom": 5877,
      "xit": 5878,
      "zika": 5879,
      "themed": 5880,
      "esp": 5881,
      "eds": 5882,
      "leon": 5883,
      "deput": 5884,
      "conv": 5885,
      "warned": 5886,
      "lawrence": 5887,
      "burning": 5888,
      "basis": 5889,
      "breakup": 5890,
      "terrorist": 5891,
      "advance": 5892,
      "mccain": 5893,
      "dak": 5894,
      "gam": 5895,
      "hay": 5896,
      "remarks": 5897,
      "devo": 5898,
      "excell": 5899,
      "solo": 5900,
      "odd": 5901,
      "makeover": 5902,
      "networks": 5903,
      "differently": 5904,
      "suggested": 5905,
      "tured": 5906,
      "advocate": 5907,
      "encourage": 5908,
      "removed": 5909,
      "dump": 5910,
      "len": 5911,
      "mend": 5912,
      "rud": 5913,
      "sends": 5914,
      "wid": 5915,
      "zs": 5916,
      "theast": 5917,
      "lips": 5918,
      "dos": 5919,
      "applic": 5920,
      "intended": 5921,
      "object": 5922,
      "divis": 5923,
      "kinds": 5924,
      "fatal": 5925,
      "corruption": 5926,
      "philadelphia": 5927,
      "oklahoma": 5928,
      "cig": 5929,
      "tops": 5930,
      "itals": 5931,
      "oms": 5932,
      "chuck": 5933,
      "rocks": 5934,
      "tsy": 5935,
      "plate": 5936,
      "disco": 5937,
      "seeks": 5938,
      "mato": 5939,
      "ordered": 5940,
      "threatened": 5941,
      "toddlers": 5942,
      "carrie": 5943,
      "dian": 5944,
      "gust": 5945,
      "vital": 5946,
      "amber": 5947,
      "undocumented": 5948,
      "code": 5949,
      "astron": 5950,
      "backlash": 5951,
      "helpful": 5952,
      "pson": 5953,
      "anny": 5954,
      "sexually": 5955,
      "newsbrief": 5956,
      "heading": 5957,
      "switch": 5958,
      "threatening": 5959,
      "mirror": 5960,
      "chairman": 5961,
      "arabia": 5962,
      "oliver": 5963,
      "dial": 5964,
      "gross": 5965,
      "hanna": 5966,
      "anderson": 5967,
      "determ": 5968,
      "detail": 5969,
      "unlike": 5970,
      "lap": 5971,
      "babys": 5972,
      "closing": 5973,
      "christians": 5974,
      "glor": 5975,
      "natur": 5976,
      "followed": 5977,
      "larry": 5978,
      "wilson": 5979,
      "neighbors": 5980,
      "pacific": 5981,
      "eastern": 5982,
      "nasa": 5983,
      "hampshire": 5984,
      "determine": 5985,
      "jared": 5986,
      "rings": 5987,
      "range": 5988,
      "infr": 5989,
      "tower": 5990,
      "acles": 5991,
      "ented": 5992,
      "ella": 5993,
      "overcome": 5994,
      "turk": 5995,
      "persons": 5996,
      "russell": 5997,
      "techni": 5998,
      "expecting": 5999,
      "allowing": 6000,
      "massacre": 6001,
      "kardashians": 6002,
      "bombing": 6003,
      "infographic": 6004,
      "bic": 6005,
      "tained": 6006,
      "denies": 6007,
      "attacked": 6008,
      "birds": 6009,
      "stressed": 6010,
      "romance": 6011,
      "eventually": 6012,
      "spotted": 6013,
      "largely": 6014,
      "footage": 6015,
      "4th": 6016,
      "vard": 6017,
      "reput": 6018,
      "deeper": 6019,
      "label": 6020,
      "display": 6021,
      "headlines": 6022,
      "causing": 6023,
      "21st": 6024,
      "promote": 6025,
      "gallery": 6026,
      "accurate": 6027,
      "aa": 6028,
      "dick": 6029,
      "ered": 6030,
      "atric": 6031,
      "loe": 6032,
      "studio": 6033,
      "tourism": 6034,
      "generations": 6035,
      "spotlight": 6036,
      "soldiers": 6037,
      "bachelor": 6038,
      "convicted": 6039,
      "missouri": 6040,
      "stim": 6041,
      "ende": 6042,
      "itis": 6043,
      "acular": 6044,
      "opio": 6045,
      "expo": 6046,
      "exchange": 6047,
      "quake": 6048,
      "promised": 6049,
      "colorful": 6050,
      "neuro": 6051,
      "universal": 6052,
      "accomplish": 6053,
      "abandoned": 6054,
      "fascin": 6055,
      "kong": 6056,
      "sisters": 6057,
      "inn": 6058,
      "roof": 6059,
      "lift": 6060,
      "igue": 6061,
      "grav": 6062,
      "spaces": 6063,
      "cler": 6064,
      "insane": 6065,
      "ashed": 6066,
      "brexit": 6067,
      "queens": 6068,
      "lately": 6069,
      "confused": 6070,
      "legislat": 6071,
      "fifth": 6072,
      "philipp": 6073,
      "blake": 6074,
      "flights": 6075,
      "hbo": 6076,
      "leng": 6077,
      "plain": 6078,
      "seasons": 6079,
      "perfection": 6080,
      "warri": 6081,
      "singing": 6082,
      "boring": 6083,
      "costumes": 6084,
      "featuring": 6085,
      "necessarily": 6086,
      "communication": 6087,
      "preparing": 6088,
      "37": 6089,
      "bart": 6090,
      "hm": 6091,
      "hint": 6092,
      "knot": 6093,
      "mall": 6094,
      "tie": 6095,
      "tric": 6096,
      "exposed": 6097,
      "spill": 6098,
      "marc": 6099,
      "josh": 6100,
      "mono": 6101,
      "diverse": 6102,
      "claiming": 6103,
      "balls": 6104,
      "tourist": 6105,
      "damn": 6106,
      "britney": 6107,
      "provides": 6108,
      "gaga": 6109,
      "newspaper": 6110,
      "vig": 6111,
      "alert": 6112,
      "aco": 6113,
      "boe": 6114,
      "tape": 6115,
      "iven": 6116,
      "chee": 6117,
      "ysis": 6118,
      "legit": 6119,
      "parade": 6120,
      "starbucks": 6121,
      "writes": 6122,
      "buff": 6123,
      "clock": 6124,
      "eases": 6125,
      "refused": 6126,
      "install": 6127,
      "honored": 6128,
      "packed": 6129,
      "memorable": 6130,
      "iranian": 6131,
      "ophobia": 6132,
      "enforcement": 6133,
      "manhattan": 6134,
      "naturally": 6135,
      "stab": 6136,
      "orous": 6137,
      "ala": 6138,
      "toler": 6139,
      "confeder": 6140,
      "shades": 6141,
      "quette": 6142,
      "drivers": 6143,
      "selfie": 6144,
      "finance": 6145,
      "closure": 6146,
      "cipl": 6147,
      "investigating": 6148,
      "sentence": 6149,
      "argument": 6150,
      "wounded": 6151,
      "hunt": 6152,
      "ien": 6153,
      "sno": 6154,
      "rebe": 6155,
      "forgiven": 6156,
      "aded": 6157,
      "roles": 6158,
      "nest": 6159,
      "newest": 6160,
      "urges": 6161,
      "tsa": 6162,
      "antit": 6163,
      "ivanka": 6164,
      "manuel": 6165,
      "twins": 6166,
      "flint": 6167,
      "jeans": 6168,
      "fundra": 6169,
      "visited": 6170,
      "blocks": 6171,
      "organized": 6172,
      "generally": 6173,
      "dedicated": 6174,
      "mixed": 6175,
      "extraordinary": 6176,
      "neutr": 6177,
      "yellow": 6178,
      "bak": 6179,
      "gary": 6180,
      "uli": 6181,
      "updated": 6182,
      "oprah": 6183,
      "reddit": 6184,
      "legally": 6185,
      "tennes": 6186,
      "bias": 6187,
      "kylie": 6188,
      "ethics": 6189,
      "impressive": 6190,
      "exploring": 6191,
      "rhetor": 6192,
      "bunch": 6193,
      "dare": 6194,
      "mul": 6195,
      "pig": 6196,
      "tiger": 6197,
      "omo": 6198,
      "acqu": 6199,
      "irts": 6200,
      "peek": 6201,
      "haust": 6202,
      "mainst": 6203,
      "exhaust": 6204,
      "astro": 6205,
      "spic": 6206,
      "letters": 6207,
      "tested": 6208,
      "campaigns": 6209,
      "scores": 6210,
      "zeal": 6211,
      "acceptable": 6212,
      "rarely": 6213,
      "bucket": 6214,
      "obviously": 6215,
      "innovation": 6216,
      "duty": 6217,
      "eff": 6218,
      "gur": 6219,
      "mask": 6220,
      "mtv": 6221,
      "nancy": 6222,
      "tts": 6223,
      "chop": 6224,
      "rot": 6225,
      "whit": 6226,
      "loans": 6227,
      "impression": 6228,
      "utah": 6229,
      "poc": 6230,
      "upset": 6231,
      "industr": 6232,
      "evil": 6233,
      "lasting": 6234,
      "viewers": 6235,
      "potentially": 6236,
      "fault": 6237,
      "returned": 6238,
      "guilt": 6239,
      "psychological": 6240,
      "blasts": 6241,
      "puppy": 6242,
      "barely": 6243,
      "32": 6244,
      "3yearold": 6245,
      "ais": 6246,
      "eco": 6247,
      "nra": 6248,
      "naked": 6249,
      "pard": 6250,
      "holy": 6251,
      "agger": 6252,
      "bliss": 6253,
      "donors": 6254,
      "preser": 6255,
      "internal": 6256,
      "spears": 6257,
      "surve": 6258,
      "morgan": 6259,
      "freak": 6260,
      "picked": 6261,
      "declared": 6262,
      "magazines": 6263,
      "customer": 6264,
      "samanth": 6265,
      "apologizes": 6266,
      "jacob": 6267,
      "suspended": 6268,
      "patterns": 6269,
      "determined": 6270,
      "samantha": 6271,
      "pound": 6272,
      "zed": 6273,
      "alike": 6274,
      "teigen": 6275,
      "ulate": 6276,
      "umption": 6277,
      "blan": 6278,
      "whenever": 6279,
      "phen": 6280,
      "menu": 6281,
      "transport": 6282,
      "wards": 6283,
      "situations": 6284,
      "relev": 6285,
      "excuse": 6286,
      "provided": 6287,
      "introdu": 6288,
      "grammys": 6289,
      "jewelry": 6290,
      "opposite": 6291,
      "aig": 6292,
      "tics": 6293,
      "returning": 6294,
      "chin": 6295,
      "aren": 6296,
      "defeat": 6297,
      "bruce": 6298,
      "shock": 6299,
      "understood": 6300,
      "casual": 6301,
      "supremac": 6302,
      "involve": 6303,
      "penalty": 6304,
      "stol": 6305,
      "vet": 6306,
      "roger": 6307,
      "shark": 6308,
      "contact": 6309,
      "familys": 6310,
      "patric": 6311,
      "walks": 6312,
      "follows": 6313,
      "rihanna": 6314,
      "susan": 6315,
      "pleasure": 6316,
      "schedule": 6317,
      "initiative": 6318,
      "privilege": 6319,
      "gg": 6320,
      "hart": 6321,
      "steven": 6322,
      "escap": 6323,
      "andy": 6324,
      "boards": 6325,
      "foss": 6326,
      "marine": 6327,
      "discipl": 6328,
      "chose": 6329,
      "hello": 6330,
      "counting": 6331,
      "pressed": 6332,
      "grey": 6333,
      "treating": 6334,
      "protections": 6335,
      "sentenced": 6336,
      "providing": 6337,
      "devices": 6338,
      "reviews": 6339,
      "praise": 6340,
      "torture": 6341,
      "turkish": 6342,
      "ahu": 6343,
      "kir": 6344,
      "niger": 6345,
      "chinas": 6346,
      "acad": 6347,
      "imony": 6348,
      "implement": 6349,
      "deleg": 6350,
      "sues": 6351,
      "highlight": 6352,
      "remembering": 6353,
      "melt": 6354,
      "weapon": 6355,
      "fighters": 6356,
      "occasion": 6357,
      "fights": 6358,
      "tact": 6359,
      "wolf": 6360,
      "unity": 6361,
      "withdraw": 6362,
      "cohen": 6363,
      "supports": 6364,
      "cleve": 6365,
      "kenned": 6366,
      "spoken": 6367,
      "bedroom": 6368,
      "admitted": 6369,
      "carrying": 6370,
      "suffered": 6371,
      "typically": 6372,
      "trigger": 6373,
      "laura": 6374,
      "aj": 6375,
      "gad": 6376,
      "junk": 6377,
      "assem": 6378,
      "ambass": 6379,
      "neth": 6380,
      "delight": 6381,
      "artisan": 6382,
      "suing": 6383,
      "izz": 6384,
      "shower": 6385,
      "mini": 6386,
      "courtesy": 6387,
      "drew": 6388,
      "empire": 6389,
      "2009": 6390,
      "inois": 6391,
      "katie": 6392,
      "constitution": 6393,
      "oct": 6394,
      "beating": 6395,
      "irish": 6396,
      "unlikely": 6397,
      "ums": 6398,
      "dod": 6399,
      "attended": 6400,
      "workouts": 6401,
      "healthcare": 6402,
      "topic": 6403,
      "passes": 6404,
      "profits": 6405,
      "spoof": 6406,
      "delivery": 6407,
      "various": 6408,
      "louisiana": 6409,
      "captures": 6410,
      "spectacular": 6411,
      "65": 6412,
      "boun": 6413,
      "mone": 6414,
      "ream": 6415,
      "arctic": 6416,
      "bei": 6417,
      "weed": 6418,
      "tered": 6419,
      "yours": 6420,
      "wash": 6421,
      "sued": 6422,
      "portion": 6423,
      "enses": 6424,
      "attitude": 6425,
      "searching": 6426,
      "migrants": 6427,
      "broadcast": 6428,
      "mysterious": 6429,
      "cigare": 6430,
      "confederate": 6431,
      "cdc": 6432,
      "erts": 6433,
      "thetic": 6434,
      "illinois": 6435,
      "anton": 6436,
      "butt": 6437,
      "jection": 6438,
      "marri": 6439,
      "traveler": 6440,
      "captured": 6441,
      "cuff": 6442,
      "hungry": 6443,
      "hottest": 6444,
      "links": 6445,
      "enemy": 6446,
      "hilariously": 6447,
      "tackle": 6448,
      "flex": 6449,
      "fierce": 6450,
      "antigay": 6451,
      "dakota": 6452,
      "bure": 6453,
      "nude": 6454,
      "rome": 6455,
      "waves": 6456,
      "leather": 6457,
      "defe": 6458,
      "maid": 6459,
      "idel": 6460,
      "craig": 6461,
      "personally": 6462,
      "approval": 6463,
      "furnit": 6464,
      "reminded": 6465,
      "maintaining": 6466,
      "joseph": 6467,
      "smooth": 6468,
      "marriages": 6469,
      "glow": 6470,
      "mud": 6471,
      "toss": 6472,
      "oldest": 6473,
      "ulations": 6474,
      "brus": 6475,
      "auth": 6476,
      "polar": 6477,
      "visits": 6478,
      "possibility": 6479,
      "judges": 6480,
      "beyonce": 6481,
      "honors": 6482,
      "organic": 6483,
      "distance": 6484,
      "cabine": 6485,
      "wrapup": 6486,
      "enjoying": 6487,
      "cleveland": 6488,
      "furniture": 6489,
      "49": 6490,
      "hong": 6491,
      "rat": 6492,
      "ufact": 6493,
      "argue": 6494,
      "adds": 6495,
      "novel": 6496,
      "manufact": 6497,
      "iance": 6498,
      "ibilities": 6499,
      "friendship": 6500,
      "divided": 6501,
      "copy": 6502,
      "dropping": 6503,
      "measures": 6504,
      "obsessed": 6505,
      "gaza": 6506,
      "matthew": 6507,
      "tennessee": 6508,
      "oke": 6509,
      "ske": 6510,
      "confront": 6511,
      "poin": 6512,
      "crush": 6513,
      "ipped": 6514,
      "legs": 6515,
      "parody": 6516,
      "sexist": 6517,
      "patrick": 6518,
      "netany": 6519,
      "walls": 6520,
      "focusing": 6521,
      "reflects": 6522,
      "fantastic": 6523,
      "landscape": 6524,
      "aggressive": 6525,
      "stolen": 6526,
      "400": 6527,
      "gates": 6528,
      "rnc": 6529,
      "reunion": 6530,
      "seal": 6531,
      "roberts": 6532,
      "illion": 6533,
      "blues": 6534,
      "diseases": 6535,
      "singers": 6536,
      "gene": 6537,
      "harvard": 6538,
      "farmers": 6539,
      "numerous": 6540,
      "brains": 6541,
      "miranda": 6542,
      "robin": 6543,
      "legendary": 6544,
      "bieber": 6545,
      "maxim": 6546,
      "acknowledge": 6547,
      "desperate": 6548,
      "austin": 6549,
      "spanish": 6550,
      "circumstances": 6551,
      "antitr": 6552,
      "rhetoric": 6553,
      "nik": 6554,
      "tox": 6555,
      "ici": 6556,
      "ila": 6557,
      "seas": 6558,
      "ione": 6559,
      "trash": 6560,
      "det": 6561,
      "antil": 6562,
      "agan": 6563,
      "invited": 6564,
      "slowly": 6565,
      "kicked": 6566,
      "prayers": 6567,
      "chefs": 6568,
      "bannon": 6569,
      "professionals": 6570,
      "pollution": 6571,
      "opioid": 6572,
      "aide": 6573,
      "kris": 6574,
      "rural": 6575,
      "thir": 6576,
      "reject": 6577,
      "chill": 6578,
      "libr": 6579,
      "ola": 6580,
      "ifies": 6581,
      "cannes": 6582,
      "shocked": 6583,
      "playlist": 6584,
      "refuses": 6585,
      "instant": 6586,
      "cycl": 6587,
      "gentle": 6588,
      "partnership": 6589,
      "specifically": 6590,
      "cription": 6591,
      "alaska": 6592,
      "chuse": 6593,
      "bever": 6594,
      "istry": 6595,
      "exual": 6596,
      "agent": 6597,
      "princ": 6598,
      "ilet": 6599,
      "fallen": 6600,
      "issued": 6601,
      "breathe": 6602,
      "ruled": 6603,
      "philos": 6604,
      "mountains": 6605,
      "gala": 6606,
      "regarding": 6607,
      "material": 6608,
      "massachuse": 6609,
      "innocent": 6610,
      "bikini": 6611,
      "rescued": 6612,
      "massachusetts": 6613,
      "gonna": 6614,
      "jing": 6615,
      "zim": 6616,
      "react": 6617,
      "atta": 6618,
      "nev": 6619,
      "updates": 6620,
      "firing": 6621,
      "carter": 6622,
      "awa": 6623,
      "stepped": 6624,
      "missile": 6625,
      "mississ": 6626,
      "retreat": 6627,
      "sexuality": 6628,
      "visitors": 6629,
      "husbands": 6630,
      "definition": 6631,
      "tickets": 6632,
      "confirms": 6633,
      "pilot": 6634,
      "fundamental": 6635,
      "grocery": 6636,
      "heritage": 6637,
      "legitim": 6638,
      "neutral": 6639,
      "mississip": 6640,
      "ti": 6641,
      "recess": 6642,
      "atures": 6643,
      "wives": 6644,
      "iels": 6645,
      "myan": 6646,
      "publicly": 6647,
      "transformation": 6648,
      "shooter": 6649,
      "meditations": 6650,
      "hospitals": 6651,
      "trop": 6652,
      "throwing": 6653,
      "nicole": 6654,
      "horrible": 6655,
      "scrip": 6656,
      "opinions": 6657,
      "trolls": 6658,
      "discovery": 6659,
      "dle": 6660,
      "lun": 6661,
      "vp": 6662,
      "beast": 6663,
      "sham": 6664,
      "boast": 6665,
      "subt": 6666,
      "aka": 6667,
      "carto": 6668,
      "comeback": 6669,
      "missions": 6670,
      "bike": 6671,
      "cruel": 6672,
      "hitting": 6673,
      "californias": 6674,
      "madness": 6675,
      "receiving": 6676,
      "session": 6677,
      "alexander": 6678,
      "latinos": 6679,
      "fate": 6680,
      "osa": 6681,
      "rage": 6682,
      "tou": 6683,
      "icial": 6684,
      "loret": 6685,
      "poo": 6686,
      "gops": 6687,
      "apol": 6688,
      "blames": 6689,
      "creation": 6690,
      "strangers": 6691,
      "ireland": 6692,
      "desk": 6693,
      "traditions": 6694,
      "giuli": 6695,
      "widely": 6696,
      "sweep": 6697,
      "slightly": 6698,
      "fossil": 6699,
      "99": 6700,
      "hiring": 6701,
      "ology": 6702,
      "pace": 6703,
      "teria": 6704,
      "tear": 6705,
      "minnes": 6706,
      "miller": 6707,
      "sanct": 6708,
      "lincol": 6709,
      "melissa": 6710,
      "smoke": 6711,
      "medicaid": 6712,
      "crown": 6713,
      "fortunate": 6714,
      "fisher": 6715,
      "phenom": 6716,
      "dic": 6717,
      "fancy": 6718,
      "sant": 6719,
      "oul": 6720,
      "depriv": 6721,
      "fright": 6722,
      "doj": 6723,
      "disorders": 6724,
      "polling": 6725,
      "shoe": 6726,
      "shore": 6727,
      "awak": 6728,
      "passenger": 6729,
      "targets": 6730,
      "experiencing": 6731,
      "agreed": 6732,
      "forgiveness": 6733,
      "mainstream": 6734,
      "34": 6735,
      "cens": 6736,
      "fk": 6737,
      "convict": 6738,
      "astru": 6739,
      "parli": 6740,
      "elector": 6741,
      "duchess": 6742,
      "ballot": 6743,
      "promin": 6744,
      "debuts": 6745,
      "attempts": 6746,
      "infrastru": 6747,
      "slo": 6748,
      "uitt": 6749,
      "unite": 6750,
      "thatll": 6751,
      "contemporary": 6752,
      "sole": 6753,
      "sured": 6754,
      "blon": 6755,
      "spain": 6756,
      "berlin": 6757,
      "assess": 6758,
      "joint": 6759,
      "driven": 6760,
      "mond": 6761,
      "mons": 6762,
      "colin": 6763,
      "ashley": 6764,
      "hug": 6765,
      "fert": 6766,
      "planes": 6767,
      "gyn": 6768,
      "administrations": 6769,
      "liberty": 6770,
      "adoption": 6771,
      "random": 6772,
      "precious": 6773,
      "honeymoon": 6774,
      "elder": 6775,
      "phrase": 6776,
      "reputation": 6777,
      "antilgbt": 6778,
      "dj": 6779,
      "eries": 6780,
      "adjust": 6781,
      "detro": 6782,
      "tsh": 6783,
      "apples": 6784,
      "grave": 6785,
      "uded": 6786,
      "emit": 6787,
      "evac": 6788,
      "joan": 6789,
      "bigo": 6790,
      "logists": 6791,
      "refuse": 6792,
      "ketch": 6793,
      "investors": 6794,
      "riers": 6795,
      "surprises": 6796,
      "torn": 6797,
      "corporations": 6798,
      "cliff": 6799,
      "conventional": 6800,
      "navy": 6801,
      "property": 6802,
      "institute": 6803,
      "lopez": 6804,
      "premier": 6805,
      "ambassador": 6806,
      "hl": 6807,
      "lisa": 6808,
      "tone": 6809,
      "inate": 6810,
      "recru": 6811,
      "reactions": 6812,
      "enh": 6813,
      "omy": 6814,
      "acity": 6815,
      "trapped": 6816,
      "maine": 6817,
      "noted": 6818,
      "mani": 6819,
      "hash": 6820,
      "patch": 6821,
      "feds": 6822,
      "breathing": 6823,
      "audio": 6824,
      "accessories": 6825,
      "touching": 6826,
      "photography": 6827,
      "communications": 6828,
      "entrepreneurs": 6829,
      "elephant": 6830,
      "remarkable": 6831,
      "39": 6832,
      "ae": 6833,
      "bage": 6834,
      "jong": 6835,
      "kk": 6836,
      "kit": 6837,
      "lla": 6838,
      "rav": 6839,
      "vation": 6840,
      "tha": 6841,
      "chelse": 6842,
      "locked": 6843,
      "decre": 6844,
      "pean": 6845,
      "ighter": 6846,
      "worn": 6847,
      "agents": 6848,
      "managed": 6849,
      "potter": 6850,
      "petition": 6851,
      "smaller": 6852,
      "defined": 6853,
      "miracle": 6854,
      "teeth": 6855,
      "cameron": 6856,
      "analysis": 6857,
      "delivered": 6858,
      "agrees": 6859,
      "impeachment": 6860,
      "stroke": 6861,
      "infrastructure": 6862,
      "gome": 6863,
      "kis": 6864,
      "pent": 6865,
      "rams": 6866,
      "revers": 6867,
      "aspects": 6868,
      "icting": 6869,
      "convin": 6870,
      "crus": 6871,
      "craw": 6872,
      "disgust": 6873,
      "wanting": 6874,
      "osex": 6875,
      "statements": 6876,
      "oreilly": 6877,
      "glad": 6878,
      "teenager": 6879,
      "subway": 6880,
      "wildlife": 6881,
      "snacks": 6882,
      "stretch": 6883,
      "parliament": 6884,
      "sop": 6885,
      "zucker": 6886,
      "escal": 6887,
      "unions": 6888,
      "uncomfortable": 6889,
      "draft": 6890,
      "supply": 6891,
      "obst": 6892,
      "jean": 6893,
      "governors": 6894,
      "mccar": 6895,
      "countless": 6896,
      "fairy": 6897,
      "civilians": 6898,
      "priority": 6899,
      "trauma": 6900,
      "lauren": 6901,
      "unemployment": 6902,
      "peanut": 6903,
      "cbs": 6904,
      "glim": 6905,
      "mam": 6906,
      "sag": 6907,
      "abc": 6908,
      "agencies": 6909,
      "partisan": 6910,
      "athlete": 6911,
      "funeral": 6912,
      "stops": 6913,
      "presented": 6914,
      "companys": 6915,
      "roads": 6916,
      "doub": 6917,
      "truths": 6918,
      "peaceful": 6919,
      "thankful": 6920,
      "criticized": 6921,
      "heaven": 6922,
      "participants": 6923,
      "savings": 6924,
      "bisexual": 6925,
      "drawn": 6926,
      "improving": 6927,
      "chapter": 6928,
      "aaron": 6929,
      "embracing": 6930,
      "33": 6931,
      "iences": 6932,
      "inct": 6933,
      "lef": 6934,
      "lebron": 6935,
      "oma": 6936,
      "hoo": 6937,
      "liance": 6938,
      "selena": 6939,
      "differences": 6940,
      "johnny": 6941,
      "directed": 6942,
      "daddy": 6943,
      "empathy": 6944,
      "debates": 6945,
      "treatments": 6946,
      "boots": 6947,
      "reflection": 6948,
      "picking": 6949,
      "stream": 6950,
      "institutions": 6951,
      "ignored": 6952,
      "surrounding": 6953,
      "relatively": 6954,
      "disturbing": 6955,
      "cabinet": 6956,
      "tropical": 6957,
      "chelsea": 6958,
      "billy": 6959,
      "rics": 6960,
      "iner": 6961,
      "stom": 6962,
      "arity": 6963,
      "dismiss": 6964,
      "ignor": 6965,
      "correspond": 6966,
      "caring": 6967,
      "10000": 6968,
      "guidelines": 6969,
      "investigate": 6970,
      "belly": 6971,
      "reaching": 6972,
      "prayer": 6973,
      "prosecutor": 6974,
      "vitam": 6975,
      "sacred": 6976,
      "exposure": 6977,
      "minnesota": 6978,
      "bite": 6979,
      "cular": 6980,
      "skept": 6981,
      "err": 6982,
      "lewis": 6983,
      "device": 6984,
      "franch": 6985,
      "antib": 6986,
      "extr": 6987,
      "endanger": 6988,
      "odds": 6989,
      "insist": 6990,
      "plea": 6991,
      "lovely": 6992,
      "stead": 6993,
      "dressing": 6994,
      "cait": 6995,
      "burden": 6996,
      "capable": 6997,
      "pasta": 6998,
      "favorites": 6999,
      "journalism": 7000,
      "throws": 7001,
      "remote": 7002,
      "wealthy": 7003,
      "occurred": 7004,
      "additional": 7005,
      "38": 7006,
      "cave": 7007,
      "recall": 7008,
      "chs": 7009,
      "implic": 7010,
      "gear": 7011,
      "moss": 7012,
      "motion": 7013,
      "motor": 7014,
      "height": 7015,
      "unknown": 7016,
      "confron": 7017,
      "coole": 7018,
      "norm": 7019,
      "openly": 7020,
      "practical": 7021,
      "buildings": 7022,
      "screening": 7023,
      "psychi": 7024,
      "jerusal": 7025,
      "equally": 7026,
      "anthro": 7027,
      "adventures": 7028,
      "fifty": 7029,
      "restrictions": 7030,
      "kennedy": 7031,
      "coolest": 7032,
      "jerusalem": 7033,
      "cous": 7034,
      "iquette": 7035,
      "pens": 7036,
      "stones": 7037,
      "bears": 7038,
      "marvel": 7039,
      "sels": 7040,
      "inson": 7041,
      "cord": 7042,
      "corden": 7043,
      "cert": 7044,
      "raw": 7045,
      "surface": 7046,
      "phar": 7047,
      "command": 7048,
      "harsh": 7049,
      "barbe": 7050,
      "stepping": 7051,
      "files": 7052,
      "juice": 7053,
      "structive": 7054,
      "earthquake": 7055,
      "discussed": 7056,
      "joining": 7057,
      "historical": 7058,
      "laughing": 7059,
      "olivia": 7060,
      "loaded": 7061,
      "introduced": 7062,
      "acknowled": 7063,
      "stigma": 7064,
      "mississippi": 7065,
      "bail": 7066,
      "dip": 7067,
      "lena": 7068,
      "beats": 7069,
      "idi": 7070,
      "proven": 7071,
      "timber": 7072,
      "spice": 7073,
      "everyones": 7074,
      "household": 7075,
      "positions": 7076,
      "tennis": 7077,
      "collect": 7078,
      "coup": 7079,
      "russias": 7080,
      "taxpay": 7081,
      "rolls": 7082,
      "produced": 7083,
      "route": 7084,
      "adopt": 7085,
      "maryland": 7086,
      "regulations": 7087,
      "gulf": 7088,
      "cine": 7089,
      "caut": 7090,
      "kicks": 7091,
      "oy": 7092,
      "tum": 7093,
      "rejected": 7094,
      "outing": 7095,
      "pelos": 7096,
      "allen": 7097,
      "shall": 7098,
      "cogn": 7099,
      "preschool": 7100,
      "disabilities": 7101,
      "assume": 7102,
      "natal": 7103,
      "ruin": 7104,
      "affle": 7105,
      "marked": 7106,
      "frances": 7107,
      "continuing": 7108,
      "outrageous": 7109,
      "narrative": 7110,
      "convinced": 7111,
      "pant": 7112,
      "vous": 7113,
      "stir": 7114,
      "olar": 7115,
      "keith": 7116,
      "contribute": 7117,
      "poem": 7118,
      "ours": 7119,
      "expression": 7120,
      "suck": 7121,
      "grounds": 7122,
      "forest": 7123,
      "awful": 7124,
      "nationwide": 7125,
      "elev": 7126,
      "calend": 7127,
      "useful": 7128,
      "duck": 7129,
      "directors": 7130,
      "slide": 7131,
      "surviving": 7132,
      "scientist": 7133,
      "rapid": 7134,
      "paradise": 7135,
      "55": 7136,
      "cav": 7137,
      "lion": 7138,
      "pd": 7139,
      "sir": 7140,
      "orial": 7141,
      "leys": 7142,
      "ili": 7143,
      "amanda": 7144,
      "nose": 7145,
      "mocks": 7146,
      "pless": 7147,
      "postcom": 7148,
      "barbar": 7149,
      "rises": 7150,
      "meanwhile": 7151,
      "retro": 7152,
      "spray": 7153,
      "rivers": 7154,
      "hanging": 7155,
      "gained": 7156,
      "shorts": 7157,
      "kendall": 7158,
      "bipartisan": 7159,
      "caf": 7160,
      "fought": 7161,
      "mia": 7162,
      "nun": 7163,
      "pione": 7164,
      "vlad": 7165,
      "wings": 7166,
      "reverse": 7167,
      "chip": 7168,
      "begun": 7169,
      "opher": 7170,
      "apers": 7171,
      "cott": 7172,
      "serves": 7173,
      "airplane": 7174,
      "lighting": 7175,
      "earn": 7176,
      "trek": 7177,
      "daniels": 7178,
      "investing": 7179,
      "destro": 7180,
      "nominated": 7181,
      "involves": 7182,
      "desert": 7183,
      "fields": 7184,
      "gains": 7185,
      "locals": 7186,
      "gathered": 7187,
      "nurse": 7188,
      "nuts": 7189,
      "fighter": 7190,
      "baldwin": 7191,
      "sparks": 7192,
      "excellent": 7193,
      "dread": 7194,
      "gart": 7195,
      "lane": 7196,
      "tomato": 7197,
      "sept": 7198,
      "adapt": 7199,
      "mock": 7200,
      "construction": 7201,
      "plun": 7202,
      "lessly": 7203,
      "rightwing": 7204,
      "visual": 7205,
      "wonders": 7206,
      "denial": 7207,
      "promp": 7208,
      "rub": 7209,
      "tuesdays": 7210,
      "behaviors": 7211,
      "solidarity": 7212,
      "frequently": 7213,
      "granted": 7214,
      "mortgage": 7215,
      "spicer": 7216,
      "bureau": 7217,
      "lincoln": 7218,
      "44": 7219,
      "daca": 7220,
      "tis": 7221,
      "inge": 7222,
      "oming": 7223,
      "holo": 7224,
      "frame": 7225,
      "excess": 7226,
      "uster": 7227,
      "colo": 7228,
      "wayne": 7229,
      "somebody": 7230,
      "monster": 7231,
      "curious": 7232,
      "vibr": 7233,
      "captain": 7234,
      "heartbreaking": 7235,
      "seemingly": 7236,
      "hunting": 7237,
      "increases": 7238,
      "onymous": 7239,
      "cofounder": 7240,
      "hiding": 7241,
      "immediate": 7242,
      "performing": 7243,
      "obsession": 7244,
      "antisemit": 7245,
      "deputy": 7246,
      "bout": 7247,
      "cind": 7248,
      "dumb": 7249,
      "pper": 7250,
      "phas": 7251,
      "qat": 7252,
      "recap": 7253,
      "aser": 7254,
      "liqu": 7255,
      "imir": 7256,
      "immu": 7257,
      "gods": 7258,
      "agu": 7259,
      "bodys": 7260,
      "elite": 7261,
      "itement": 7262,
      "twin": 7263,
      "adele": 7264,
      "checking": 7265,
      "duke": 7266,
      "couch": 7267,
      "classroom": 7268,
      "supported": 7269,
      "150": 7270,
      "triump": 7271,
      "pushed": 7272,
      "alien": 7273,
      "combination": 7274,
      "collaboration": 7275,
      "portrait": 7276,
      "getaway": 7277,
      "detention": 7278,
      "mama": 7279,
      "pies": 7280,
      "sque": 7281,
      "thal": 7282,
      "orient": 7283,
      "entit": 7284,
      "nostal": 7285,
      "geo": 7286,
      "absur": 7287,
      "acking": 7288,
      "jews": 7289,
      "sexism": 7290,
      "bang": 7291,
      "travels": 7292,
      "possess": 7293,
      "designs": 7294,
      "fatally": 7295,
      "terrorists": 7296,
      "emerging": 7297,
      "crashes": 7298,
      "iraqi": 7299,
      "diamond": 7300,
      "devos": 7301,
      "detroit": 7302,
      "bash": 7303,
      "dave": 7304,
      "lace": 7305,
      "ogue": 7306,
      "rated": 7307,
      "rance": 7308,
      "stance": 7309,
      "itz": 7310,
      "imper": 7311,
      "feud": 7312,
      "sover": 7313,
      "bru": 7314,
      "grim": 7315,
      "donations": 7316,
      "reele": 7317,
      "background": 7318,
      "caregi": 7319,
      "etiquette": 7320,
      "gang": 7321,
      "tremend": 7322,
      "appeals": 7323,
      "midst": 7324,
      "confusing": 7325,
      "flav": 7326,
      "lipstick": 7327,
      "circle": 7328,
      "editorial": 7329,
      "accepting": 7330,
      "accepted": 7331,
      "zealand": 7332,
      "relevant": 7333,
      "vladimir": 7334,
      "eleg": 7335,
      "flower": 7336,
      "flynn": 7337,
      "sten": 7338,
      "stake": 7339,
      "enor": 7340,
      "conway": 7341,
      "scul": 7342,
      "register": 7343,
      "traveled": 7344,
      "classes": 7345,
      "diego": 7346,
      "authority": 7347,
      "honoring": 7348,
      "galax": 7349,
      "arianna": 7350,
      "politician": 7351,
      "feminism": 7352,
      "demanding": 7353,
      "praises": 7354,
      "brady": 7355,
      "exhibit": 7356,
      "rocket": 7357,
      "chester": 7358,
      "deportation": 7359,
      "elementary": 7360,
      "blonde": 7361,
      "cable": 7362,
      "eats": 7363,
      "gle": 7364,
      "jazz": 7365,
      "wrest": 7366,
      "witch": 7367,
      "ora": 7368,
      "icop": 7369,
      "lov": 7370,
      "feast": 7371,
      "istics": 7372,
      "tai": 7373,
      "affl": 7374,
      "colon": 7375,
      "backto": 7376,
      "underwear": 7377,
      "owned": 7378,
      "kinder": 7379,
      "judgment": 7380,
      "gifs": 7381,
      "revel": 7382,
      "graphy": 7383,
      "baking": 7384,
      "drown": 7385,
      "roman": 7386,
      "imagined": 7387,
      "britain": 7388,
      "lord": 7389,
      "located": 7390,
      "entertaining": 7391,
      "graduate": 7392,
      "nasty": 7393,
      "advertising": 7394,
      "virtual": 7395,
      "genetic": 7396,
      "phenomen": 7397,
      "beng": 7398,
      "gwy": 7399,
      "hire": 7400,
      "ja": 7401,
      "slip": 7402,
      "ini": 7403,
      "rein": 7404,
      "stoc": 7405,
      "beef": 7406,
      "ulated": 7407,
      "coat": 7408,
      "spa": 7409,
      "eval": 7410,
      "preh": 7411,
      "monitor": 7412,
      "chanel": 7413,
      "warn": 7414,
      "tooth": 7415,
      "charle": 7416,
      "signature": 7417,
      "venez": 7418,
      "hopefully": 7419,
      "hamilton": 7420,
      "physically": 7421,
      "explores": 7422,
      "catching": 7423,
      "atlantic": 7424,
      "lindsey": 7425,
      "accidentally": 7426,
      "intimid": 7427,
      "purchase": 7428,
      "explosion": 7429,
      "scheduled": 7430,
      "vehicle": 7431,
      "pelosi": 7432,
      "2yearold": 7433,
      "bly": 7434,
      "file": 7435,
      "kale": 7436,
      "patt": 7437,
      "rebel": 7438,
      "degener": 7439,
      "resor": 7440,
      "congrat": 7441,
      "compreh": 7442,
      "exists": 7443,
      "yeah": 7444,
      "eves": 7445,
      "evangel": 7446,
      "hadnt": 7447,
      "surf": 7448,
      "miser": 7449,
      "alec": 7450,
      "burns": 7451,
      "accuses": 7452,
      "battles": 7453,
      "lifting": 7454,
      "sacrif": 7455,
      "tensions": 7456,
      "grilled": 7457,
      "giants": 7458,
      "embarrassing": 7459,
      "spokesman": 7460,
      "instru": 7461,
      "rell": 7462,
      "chart": 7463,
      "haul": 7464,
      "socalled": 7465,
      "indul": 7466,
      "donate": 7467,
      "lows": 7468,
      "chosen": 7469,
      "intens": 7470,
      "curry": 7471,
      "cutest": 7472,
      "yorks": 7473,
      "fortune": 7474,
      "nsfw": 7475,
      "hyper": 7476,
      "reaches": 7477,
      "pulls": 7478,
      "emotionally": 7479,
      "existence": 7480,
      "narrow": 7481,
      "emmys": 7482,
      "fascinating": 7483,
      "netanyahu": 7484,
      "flavors": 7485,
      "4yearold": 7486,
      "dal": 7487,
      "dile": 7488,
      "kn": 7489,
      "nix": 7490,
      "rou": 7491,
      "smar": 7492,
      "oles": 7493,
      "urged": 7494,
      "peak": 7495,
      "managing": 7496,
      "portray": 7497,
      "disagree": 7498,
      "insight": 7499,
      "thrive": 7500,
      "longtime": 7501,
      "startup": 7502,
      "deny": 7503,
      "retired": 7504,
      "invas": 7505,
      "spoil": 7506,
      "teenagers": 7507,
      "belt": 7508,
      "discusses": 7509,
      "mount": 7510,
      "ukrain": 7511,
      "gathering": 7512,
      "intimate": 7513,
      "ingredient": 7514,
      "philippines": 7515,
      "nevada": 7516,
      "toug": 7517,
      "gomez": 7518,
      "absurd": 7519,
      "fon": 7520,
      "iant": 7521,
      "kah": 7522,
      "inmates": 7523,
      "robot": 7524,
      "nell": 7525,
      "trib": 7526,
      "laid": 7527,
      "helicop": 7528,
      "homeland": 7529,
      "finale": 7530,
      "billions": 7531,
      "bankr": 7532,
      "earned": 7533,
      "burgers": 7534,
      "hills": 7535,
      "superhero": 7536,
      "shoots": 7537,
      "suspects": 7538,
      "educational": 7539,
      "horrific": 7540,
      "crowds": 7541,
      "tension": 7542,
      "improved": 7543,
      "volunteer": 7544,
      "endorsement": 7545,
      "stereotypes": 7546,
      "5000": 7547,
      "dna": 7548,
      "nia": 7549,
      "inlaw": 7550,
      "adh": 7551,
      "neon": 7552,
      "cease": 7553,
      "proced": 7554,
      "twenty": 7555,
      "supp": 7556,
      "hardest": 7557,
      "dangers": 7558,
      "hurts": 7559,
      "fridays": 7560,
      "wishes": 7561,
      "excitement": 7562,
      "riding": 7563,
      "batman": 7564,
      "draws": 7565,
      "aimed": 7566,
      "effectively": 7567,
      "regularly": 7568,
      "bombs": 7569,
      "safer": 7570,
      "creepy": 7571,
      "annoying": 7572,
      "pointing": 7573,
      "prominent": 7574,
      "evangelical": 7575,
      "80s": 7576,
      "nay": 7577,
      "nons": 7578,
      "sought": 7579,
      "stad": 7580,
      "ambit": 7581,
      "hem": 7582,
      "pling": 7583,
      "emiss": 7584,
      "bery": 7585,
      "igned": 7586,
      "starring": 7587,
      "charming": 7588,
      "valid": 7589,
      "gays": 7590,
      "clever": 7591,
      "vacations": 7592,
      "accusations": 7593,
      "metro": 7594,
      "50s": 7595,
      "packing": 7596,
      "henry": 7597,
      "sadly": 7598,
      "fabric": 7599,
      "crackdown": 7600,
      "glutenfree": 7601,
      "enormous": 7602,
      "bitter": 7603,
      "gil": 7604,
      "hr": 7605,
      "tina": 7606,
      "alep": 7607,
      "tof": 7608,
      "leaked": 7609,
      "chant": 7610,
      "button": 7611,
      "offs": 7612,
      "disability": 7613,
      "aftermath": 7614,
      "attending": 7615,
      "backyard": 7616,
      "carn": 7617,
      "realistic": 7618,
      "hugh": 7619,
      "expans": 7620,
      "dub": 7621,
      "hardly": 7622,
      "deadline": 7623,
      "hosting": 7624,
      "grows": 7625,
      "diets": 7626,
      "protein": 7627,
      "suspic": 7628,
      "closely": 7629,
      "opera": 7630,
      "delivers": 7631,
      "decline": 7632,
      "proposals": 7633,
      "sharp": 7634,
      "promoting": 7635,
      "theatre": 7636,
      "temperatures": 7637,
      "inevitable": 7638,
      "cheeky": 7639,
      "48": 7640,
      "athan": 7641,
      "hil": 7642,
      "kush": 7643,
      "lil": 7644,
      "rane": 7645,
      "stam": 7646,
      "argent": 7647,
      "itzer": 7648,
      "forcing": 7649,
      "entry": 7650,
      "rodr": 7651,
      "unpreced": 7652,
      "exit": 7653,
      "mann": 7654,
      "justices": 7655,
      "emily": 7656,
      "render": 7657,
      "reallife": 7658,
      "lastminute": 7659,
      "successfully": 7660,
      "submit": 7661,
      "silly": 7662,
      "militants": 7663,
      "graduation": 7664,
      "besides": 7665,
      "clips": 7666,
      "bacteria": 7667,
      "swimming": 7668,
      "coalition": 7669,
      "desserts": 7670,
      "clinic": 7671,
      "memoir": 7672,
      "unprecedented": 7673,
      "ibut": 7674,
      "nab": 7675,
      "ero": 7676,
      "anonymous": 7677,
      "recalls": 7678,
      "arming": 7679,
      "chen": 7680,
      "seats": 7681,
      "concent": 7682,
      "subur": 7683,
      "drives": 7684,
      "prep": 7685,
      "checks": 7686,
      "msnbc": 7687,
      "runner": 7688,
      "hosted": 7689,
      "cyn": 7690,
      "protected": 7691,
      "roller": 7692,
      "tune": 7693,
      "garner": 7694,
      "heroin": 7695,
      "anxious": 7696,
      "jonathan": 7697,
      "opponents": 7698,
      "uncertainty": 7699,
      "sanctuary": 7700,
      "charleston": 7701,
      "aleppo": 7702,
      "bast": 7703,
      "dive": 7704,
      "ee": 7705,
      "flies": 7706,
      "hans": 7707,
      "pier": 7708,
      "sli": 7709,
      "sab": 7710,
      "stap": 7711,
      "toilet": 7712,
      "forgive": 7713,
      "loose": 7714,
      "nea": 7715,
      "wire": 7716,
      "essa": 7717,
      "spon": 7718,
      "portland": 7719,
      "mediter": 7720,
      "careers": 7721,
      "steel": 7722,
      "headline": 7723,
      "capacity": 7724,
      "gunman": 7725,
      "natives": 7726,
      "races": 7727,
      "survived": 7728,
      "figured": 7729,
      "kellyanne": 7730,
      "extended": 7731,
      "striking": 7732,
      "jamie": 7733,
      "charlotte": 7734,
      "repeatedly": 7735,
      "kasich": 7736,
      "dialogue": 7737,
      "beijing": 7738,
      "glimpse": 7739,
      "bankrupt": 7740,
      "6yearold": 7741,
      "dign": 7742,
      "jar": 7743,
      "knight": 7744,
      "mm": 7745,
      "inappropriate": 7746,
      "icut": 7747,
      "beg": 7748,
      "mosco": 7749,
      "resur": 7750,
      "shaming": 7751,
      "prescription": 7752,
      "steal": 7753,
      "testimony": 7754,
      "divide": 7755,
      "messy": 7756,
      "festivals": 7757,
      "dreaming": 7758,
      "package": 7759,
      "executives": 7760,
      "skinny": 7761,
      "recognition": 7762,
      "connecticut": 7763,
      "pledge": 7764,
      "exhibition": 7765,
      "mosque": 7766,
      "labels": 7767,
      "mediterrane": 7768,
      "fau": 7769,
      "nate": 7770,
      "pause": 7771,
      "tall": 7772,
      "inals": 7773,
      "trun": 7774,
      "brush": 7775,
      "sures": 7776,
      "ipad": 7777,
      "marie": 7778,
      "drone": 7779,
      "airports": 7780,
      "finished": 7781,
      "careful": 7782,
      "wondered": 7783,
      "avoiding": 7784,
      "princi": 7785,
      "drawing": 7786,
      "victoria": 7787,
      "thrown": 7788,
      "nolds": 7789,
      "elderly": 7790,
      "osexual": 7791,
      "47": 7792,
      "dum": 7793,
      "mck": 7794,
      "rous": 7795,
      "error": 7796,
      "reid": 7797,
      "beans": 7798,
      "ading": 7799,
      "weir": 7800,
      "nobel": 7801,
      "gel": 7802,
      "proceed": 7803,
      "howard": 7804,
      "shield": 7805,
      "bored": 7806,
      "straw": 7807,
      "colomb": 7808,
      "reads": 7809,
      "formal": 7810,
      "caust": 7811,
      "refres": 7812,
      "inclusive": 7813,
      "teaches": 7814,
      "activism": 7815,
      "entered": 7816,
      "honestly": 7817,
      "angelina": 7818,
      "frequent": 7819,
      "permanent": 7820,
      "mccarthy": 7821,
      "calendar": 7822,
      "gwyneth": 7823,
      "mediterranean": 7824,
      "bible": 7825,
      "khan": 7826,
      "idol": 7827,
      "pops": 7828,
      "opard": 7829,
      "cow": 7830,
      "manning": 7831,
      "saint": 7832,
      "20s": 7833,
      "drake": 7834,
      "spell": 7835,
      "dynam": 7836,
      "pedi": 7837,
      "sandra": 7838,
      "cultiv": 7839,
      "defining": 7840,
      "pulling": 7841,
      "answered": 7842,
      "repeat": 7843,
      "darn": 7844,
      "carried": 7845,
      "disasters": 7846,
      "pattern": 7847,
      "crafts": 7848,
      "kushner": 7849,
      "43": 7850,
      "fiction": 7851,
      "infin": 7852,
      "mogul": 7853,
      "outcome": 7854,
      "poly": 7855,
      "cole": 7856,
      "porting": 7857,
      "aches": 7858,
      "intern": 7859,
      "airs": 7860,
      "mature": 7861,
      "stopping": 7862,
      "handed": 7863,
      "consumption": 7864,
      "ruth": 7865,
      "arkansas": 7866,
      "grande": 7867,
      "grandmother": 7868,
      "accountable": 7869,
      "sequel": 7870,
      "ophobic": 7871,
      "motivation": 7872,
      "affairs": 7873,
      "www": 7874,
      "boundaries": 7875,
      "championship": 7876,
      "employment": 7877,
      "poetry": 7878,
      "confirmation": 7879,
      "hypocris": 7880,
      "emissions": 7881,
      "bou": 7882,
      "cend": 7883,
      "ckey": 7884,
      "eag": 7885,
      "jur": 7886,
      "trow": 7887,
      "uction": 7888,
      "wol": 7889,
      "informed": 7890,
      "rets": 7891,
      "itudes": 7892,
      "behold": 7893,
      "aced": 7894,
      "forum": 7895,
      "root": 7896,
      "destruction": 7897,
      "unfair": 7898,
      "perpet": 7899,
      "string": 7900,
      "selfe": 7901,
      "interrup": 7902,
      "singapo": 7903,
      "nervous": 7904,
      "highway": 7905,
      "regional": 7906,
      "christina": 7907,
      "filmmaker": 7908,
      "pursue": 7909,
      "tribe": 7910,
      "interviews": 7911,
      "arrive": 7912,
      "preventing": 7913,
      "exercises": 7914,
      "appla": 7915,
      "rupa": 7916,
      "declares": 7917,
      "smartphone": 7918,
      "therapist": 7919,
      "vegetarian": 7920,
      "productivity": 7921,
      "empowering": 7922,
      "montana": 7923,
      "retailers": 7924,
      "aisle": 7925,
      "myanmar": 7926,
      "stomach": 7927,
      "tremendous": 7928,
      "jere": 7929,
      "nca": 7930,
      "pour": 7931,
      "xl": 7932,
      "stall": 7933,
      "icking": 7934,
      "rol": 7935,
      "unable": 7936,
      "abled": 7937,
      "meme": 7938,
      "opposed": 7939,
      "antim": 7940,
      "notor": 7941,
      "iveness": 7942,
      "ively": 7943,
      "polish": 7944,
      "mondays": 7945,
      "partys": 7946,
      "bestdressed": 7947,
      "stealing": 7948,
      "101": 7949,
      "elements": 7950,
      "genu": 7951,
      "barriers": 7952,
      "importantly": 7953,
      "addict": 7954,
      "springs": 7955,
      "paltrow": 7956,
      "depends": 7957,
      "dreamers": 7958,
      "melania": 7959,
      "madonna": 7960,
      "alongside": 7961,
      "performed": 7962,
      "darkness": 7963,
      "riot": 7964,
      "targeting": 7965,
      "responded": 7966,
      "apologize": 7967,
      "expanding": 7968,
      "explor": 7969,
      "reducing": 7970,
      "caitlyn": 7971,
      "holocaust": 7972,
      "85": 7973,
      "skill": 7974,
      "wines": 7975,
      "recover": 7976,
      "entering": 7977,
      "whist": 7978,
      "trap": 7979,
      "vermont": 7980,
      "unting": 7981,
      "unplug": 7982,
      "cel": 7983,
      "pee": 7984,
      "conan": 7985,
      "context": 7986,
      "coc": 7987,
      "mentally": 7988,
      "perce": 7989,
      "drum": 7990,
      "scare": 7991,
      "guides": 7992,
      "beings": 7993,
      "wells": 7994,
      "surely": 7995,
      "defending": 7996,
      "humanitarian": 7997,
      "invite": 7998,
      "bridges": 7999,
      "worrying": 8000,
      "soldier": 8001,
      "hatred": 8002,
      "decorating": 8003,
      "reynolds": 8004,
      "describes": 8005,
      "sparked": 8006,
      "canceled": 8007,
      "slammed": 8008,
      "tastes": 8009,
      "hashtag": 8010,
      "dale": 8011,
      "hul": 8012,
      "oz": 8013,
      "phe": 8014,
      "zel": 8015,
      "leak": 8016,
      "icit": 8017,
      "segment": 8018,
      "degre": 8019,
      "unfold": 8020,
      "essay": 8021,
      "auction": 8022,
      "assum": 8023,
      "cheat": 8024,
      "huck": 8025,
      "holmes": 8026,
      "celeb": 8027,
      "angela": 8028,
      "confusion": 8029,
      "reasonable": 8030,
      "grandma": 8031,
      "ombie": 8032,
      "scrut": 8033,
      "hacks": 8034,
      "significantly": 8035,
      "ethnic": 8036,
      "quietly": 8037,
      "replacement": 8038,
      "attempted": 8039,
      "photographs": 8040,
      "victorias": 8041,
      "authors": 8042,
      "galaxy": 8043,
      "bache": 8044,
      "mma": 8045,
      "sketch": 8046,
      "tte": 8047,
      "infection": 8048,
      "rem": 8049,
      "noise": 8050,
      "unders": 8051,
      "contrad": 8052,
      "endum": 8053,
      "gras": 8054,
      "getty": 8055,
      "spy": 8056,
      "theyd": 8057,
      "izer": 8058,
      "eva": 8059,
      "intervent": 8060,
      "bug": 8061,
      "christopher": 8062,
      "vaccin": 8063,
      "lamar": 8064,
      "luther": 8065,
      "culinary": 8066,
      "jackie": 8067,
      "hollywoods": 8068,
      "modeling": 8069,
      "existing": 8070,
      "adopted": 8071,
      "collins": 8072,
      "elephants": 8073,
      "eliminate": 8074,
      "navigate": 8075,
      "vietnam": 8076,
      "patricks": 8077,
      "recession": 8078,
      "fertility": 8079,
      "hypocrisy": 8080,
      "degrees": 8081,
      "42": 8082,
      "dul": 8083,
      "hner": 8084,
      "hats": 8085,
      "iors": 8086,
      "mash": 8087,
      "rib": 8088,
      "rank": 8089,
      "yan": 8090,
      "invisible": 8091,
      "leep": 8092,
      "rog": 8093,
      "robo": 8094,
      "deem": 8095,
      "tees": 8096,
      "maids": 8097,
      "shuff": 8098,
      "quer": 8099,
      "pread": 8100,
      "turing": 8101,
      "funded": 8102,
      "restore": 8103,
      "denoun": 8104,
      "storms": 8105,
      "europes": 8106,
      "blogs": 8107,
      "toronto": 8108,
      "browns": 8109,
      "conflicts": 8110,
      "initial": 8111,
      "streaming": 8112,
      "conducted": 8113,
      "fruits": 8114,
      "complaints": 8115,
      "consistent": 8116,
      "negotiations": 8117,
      "khloe": 8118,
      "estimated": 8119,
      "resolve": 8120,
      "enthusia": 8121,
      "electoral": 8122,
      "cognitive": 8123,
      "barbara": 8124,
      "immune": 8125,
      "resorts": 8126,
      "fts": 8127,
      "kay": 8128,
      "kath": 8129,
      "sche": 8130,
      "wand": 8131,
      "erup": 8132,
      "rely": 8133,
      "eday": 8134,
      "sector": 8135,
      "dele": 8136,
      "outdoors": 8137,
      "dows": 8138,
      "apes": 8139,
      "apnea": 8140,
      "shat": 8141,
      "bris": 8142,
      "brag": 8143,
      "spider": 8144,
      "tyler": 8145,
      "channels": 8146,
      "flick": 8147,
      "buf": 8148,
      "curb": 8149,
      "caly": 8150,
      "lighten": 8151,
      "formula": 8152,
      "parental": 8153,
      "promising": 8154,
      "frontrun": 8155,
      "100000": 8156,
      "conservation": 8157,
      "addressing": 8158,
      "cells": 8159,
      "mobil": 8160,
      "resigns": 8161,
      "referendum": 8162,
      "overwhelmed": 8163,
      "glamorous": 8164,
      "knock": 8165,
      "chemicals": 8166,
      "collaps": 8167,
      "apolis": 8168,
      "bacheloret": 8169,
      "dur": 8170,
      "echo": 8171,
      "nan": 8172,
      "rust": 8173,
      "uct": 8174,
      "yo": 8175,
      "recording": 8176,
      "toky": 8177,
      "aspect": 8178,
      "imental": 8179,
      "resident": 8180,
      "illance": 8181,
      "metal": 8182,
      "cozy": 8183,
      "oblig": 8184,
      "cents": 8185,
      "shoulder": 8186,
      "downs": 8187,
      "borders": 8188,
      "connections": 8189,
      "imagination": 8190,
      "thousand": 8191,
      "involving": 8192,
      "strengthen": 8193,
      "competitive": 8194,
      "sensitive": 8195,
      "fuels": 8196,
      "slavery": 8197,
      "assistant": 8198,
      "infidel": 8199,
      "cartoon": 8200,
      "degeneres": 8201,
      "genuine": 8202,
      "owe": 8203,
      "ores": 8204,
      "wides": 8205,
      "yl": 8206,
      "betsy": 8207,
      "forth": 8208,
      "nowhere": 8209,
      "excus": 8210,
      "exotic": 8211,
      "newborn": 8212,
      "sphere": 8213,
      "drain": 8214,
      "weekends": 8215,
      "obese": 8216,
      "persist": 8217,
      "bubble": 8218,
      "summers": 8219,
      "regrets": 8220,
      "banana": 8221,
      "claire": 8222,
      "medicare": 8223,
      "recognized": 8224,
      "bloody": 8225,
      "scrat": 8226,
      "breathtaking": 8227,
      "minorities": 8228,
      "predictable": 8229,
      "endorses": 8230,
      "intentions": 8231,
      "punishment": 8232,
      "hudson": 8233,
      "nazi": 8234,
      "dispute": 8235,
      "introduce": 8236,
      "manifest": 8237,
      "pentagon": 8238,
      "ncaa": 8239,
      "gie": 8240,
      "gory": 8241,
      "jaw": 8242,
      "sink": 8243,
      "wig": 8244,
      "theft": 8245,
      "chips": 8246,
      "demi": 8247,
      "opic": 8248,
      "notion": 8249,
      "prank": 8250,
      "oked": 8251,
      "kingdom": 8252,
      "athome": 8253,
      "curios": 8254,
      "autum": 8255,
      "founded": 8256,
      "payment": 8257,
      "investigators": 8258,
      "achieving": 8259,
      "gymnast": 8260,
      "patriots": 8261,
      "ratings": 8262,
      "knee": 8263,
      "threw": 8264,
      "surveillance": 8265,
      "subtle": 8266,
      "giuliani": 8267,
      "dignity": 8268,
      "72": 8269,
      "ec": 8270,
      "jab": 8271,
      "rides": 8272,
      "tut": 8273,
      "inher": 8274,
      "infant": 8275,
      "itory": 8276,
      "liar": 8277,
      "liked": 8278,
      "whip": 8279,
      "pow": 8280,
      "articles": 8281,
      "priest": 8282,
      "crib": 8283,
      "spike": 8284,
      "guid": 8285,
      "calor": 8286,
      "northeast": 8287,
      "ption": 8288,
      "billboard": 8289,
      "qualified": 8290,
      "cuis": 8291,
      "cuomo": 8292,
      "ttes": 8293,
      "boycott": 8294,
      "practicing": 8295,
      "remembered": 8296,
      "advanced": 8297,
      "relaxing": 8298,
      "lindsay": 8299,
      "glamour": 8300,
      "attractive": 8301,
      "theaters": 8302,
      "papers": 8303,
      "boehner": 8304,
      "timberlake": 8305,
      "helicopter": 8306,
      "widespread": 8307,
      "41": 8308,
      "cass": 8309,
      "hors": 8310,
      "lished": 8311,
      "pip": 8312,
      "vatic": 8313,
      "rever": 8314,
      "asleep": 8315,
      "bees": 8316,
      "roe": 8317,
      "feb": 8318,
      "meghan": 8319,
      "coordin": 8320,
      "berries": 8321,
      "genes": 8322,
      "patience": 8323,
      "pastor": 8324,
      "spectrum": 8325,
      "keystone": 8326,
      "dinosa": 8327,
      "animated": 8328,
      "suggestions": 8329,
      "operation": 8330,
      "tracks": 8331,
      "koch": 8332,
      "staffers": 8333,
      "vegetable": 8334,
      "maternity": 8335,
      "allergies": 8336,
      "citizenship": 8337,
      "hazi": 8338,
      "establishment": 8339,
      "espn": 8340,
      "antibio": 8341,
      "eager": 8342,
      "riel": 8343,
      "tent": 8344,
      "tab": 8345,
      "uate": 8346,
      "anist": 8347,
      "rex": 8348,
      "liz": 8349,
      "heck": 8350,
      "fever": 8351,
      "compar": 8352,
      "lazy": 8353,
      "shy": 8354,
      "boob": 8355,
      "odes": 8356,
      "centuries": 8357,
      "tales": 8358,
      "flour": 8359,
      "windows": 8360,
      "dawn": 8361,
      "nypd": 8362,
      "seasonal": 8363,
      "pointed": 8364,
      "casting": 8365,
      "palm": 8366,
      "bloggers": 8367,
      "medication": 8368,
      "progressives": 8369,
      "penis": 8370,
      "distribut": 8371,
      "beaten": 8372,
      "influential": 8373,
      "nicki": 8374,
      "properly": 8375,
      "africanamerican": 8376,
      "beckham": 8377,
      "lonely": 8378,
      "grieving": 8379,
      "rudy": 8380,
      "warriors": 8381,
      "library": 8382,
      "script": 8383,
      "phenomenon": 8384,
      "moscow": 8385,
      "ogy": 8386,
      "pad": 8387,
      "yer": 8388,
      "thick": 8389,
      "reign": 8390,
      "beware": 8391,
      "hockey": 8392,
      "lia": 8393,
      "pear": 8394,
      "laint": 8395,
      "20th": 8396,
      "dispar": 8397,
      "backing": 8398,
      "carefully": 8399,
      "buck": 8400,
      "complaint": 8401,
      "burgh": 8402,
      "spirits": 8403,
      "controlled": 8404,
      "researcher": 8405,
      "catastro": 8406,
      "hammad": 8407,
      "battling": 8408,
      "finances": 8409,
      "comedians": 8410,
      "gaining": 8411,
      "squad": 8412,
      "attorneys": 8413,
      "troubling": 8414,
      "troubled": 8415,
      "separation": 8416,
      "fingers": 8417,
      "talented": 8418,
      "destroyed": 8419,
      "disappointed": 8420,
      "diane": 8421,
      "endangered": 8422,
      "reelection": 8423,
      "7yearold": 8424,
      "baked": 8425,
      "kam": 8426,
      "wick": 8427,
      "thed": 8428,
      "tobac": 8429,
      "wet": 8430,
      "mosqu": 8431,
      "ipal": 8432,
      "sake": 8433,
      "cloud": 8434,
      "iano": 8435,
      "turkeys": 8436,
      "landing": 8437,
      "banning": 8438,
      "burned": 8439,
      "ballet": 8440,
      "consult": 8441,
      "ortions": 8442,
      "followers": 8443,
      "cuban": 8444,
      "hurting": 8445,
      "madison": 8446,
      "arrests": 8447,
      "absence": 8448,
      "revealing": 8449,
      "supporter": 8450,
      "statue": 8451,
      "electronic": 8452,
      "expressed": 8453,
      "nursing": 8454,
      "graduates": 8455,
      "compete": 8456,
      "arguments": 8457,
      "oxy": 8458,
      "revenge": 8459,
      "resilience": 8460,
      "refreshing": 8461,
      "bachelorette": 8462,
      "dere": 8463,
      "fu": 8464,
      "jel": 8465,
      "jake": 8466,
      "ku": 8467,
      "passa": 8468,
      "rug": 8469,
      "tobe": 8470,
      "lah": 8471,
      "proved": 8472,
      "ashamed": 8473,
      "shops": 8474,
      "realizing": 8475,
      "wright": 8476,
      "duo": 8477,
      "walt": 8478,
      "purple": 8479,
      "longest": 8480,
      "grandparents": 8481,
      "ensem": 8482,
      "deliber": 8483,
      "addressed": 8484,
      "reflections": 8485,
      "prisoners": 8486,
      "antiabortion": 8487,
      "connecting": 8488,
      "resignation": 8489,
      "scenar": 8490,
      "impressed": 8491,
      "innovative": 8492,
      "flooding": 8493,
      "frustrated": 8494,
      "desperately": 8495,
      "palestinians": 8496,
      "transportation": 8497,
      "academic": 8498,
      "franchise": 8499,
      "backtoschool": 8500,
      "kindergart": 8501,
      "benghazi": 8502,
      "adhd": 8503,
      "hucka": 8504,
      "guidance": 8505,
      "passage": 8506,
      "bil": 8507,
      "dough": 8508,
      "uated": 8509,
      "incar": 8510,
      "recovering": 8511,
      "itable": 8512,
      "chase": 8513,
      "poet": 8514,
      "masters": 8515,
      "bother": 8516,
      "cox": 8517,
      "permission": 8518,
      "spous": 8519,
      "spreading": 8520,
      "intu": 8521,
      "talib": 8522,
      "compli": 8523,
      "politically": 8524,
      "lottery": 8525,
      "handful": 8526,
      "handling": 8527,
      "attacking": 8528,
      "mascul": 8529,
      "techn": 8530,
      "meetings": 8531,
      "volcan": 8532,
      "encouraging": 8533,
      "appreciation": 8534,
      "neighborhoods": 8535,
      "bbq": 8536,
      "category": 8537,
      "vitamin": 8538,
      "stadium": 8539,
      "principles": 8540,
      "infidelity": 8541,
      "tobacco": 8542,
      "odo": 8543,
      "tive": 8544,
      "wag": 8545,
      "recalled": 8546,
      "itll": 8547,
      "mole": 8548,
      "irans": 8549,
      "dement": 8550,
      "dems": 8551,
      "lav": 8552,
      "prohib": 8553,
      "pruitt": 8554,
      "llar": 8555,
      "blings": 8556,
      "donut": 8557,
      "eline": 8558,
      "hispanic": 8559,
      "scam": 8560,
      "observ": 8561,
      "minaj": 8562,
      "happily": 8563,
      "parker": 8564,
      "charter": 8565,
      "visions": 8566,
      "listed": 8567,
      "barry": 8568,
      "lively": 8569,
      "fastest": 8570,
      "bai": 8571,
      "pushes": 8572,
      "silicon": 8573,
      "inspires": 8574,
      "boxes": 8575,
      "luke": 8576,
      "moderate": 8577,
      "binge": 8578,
      "crowded": 8579,
      "alternatives": 8580,
      "accountability": 8581,
      "hacking": 8582,
      "bells": 8583,
      "kaeper": 8584,
      "exception": 8585,
      "vaccines": 8586,
      "motivated": 8587,
      "woke": 8588,
      "worries": 8589,
      "narc": 8590,
      "zuckerberg": 8591,
      "implications": 8592,
      "3d": 8593,
      "bits": 8594,
      "hens": 8595,
      "hale": 8596,
      "jill": 8597,
      "md": 8598,
      "rd": 8599,
      "sul": 8600,
      "scan": 8601,
      "tank": 8602,
      "wen": 8603,
      "stages": 8604,
      "alarm": 8605,
      "veg": 8606,
      "dean": 8607,
      "unclear": 8608,
      "hait": 8609,
      "lapse": 8610,
      "blamed": 8611,
      "somewhat": 8612,
      "ignoring": 8613,
      "carly": 8614,
      "adequ": 8615,
      "raham": 8616,
      "jeal": 8617,
      "signal": 8618,
      "sunny": 8619,
      "bene": 8620,
      "factory": 8621,
      "bully": 8622,
      "trading": 8623,
      "boarding": 8624,
      "meditate": 8625,
      "wednesdays": 8626,
      "ponder": 8627,
      "passionate": 8628,
      "bottles": 8629,
      "attempting": 8630,
      "surrounded": 8631,
      "fiscal": 8632,
      "quarterback": 8633,
      "convince": 8634,
      "brussels": 8635,
      "sophist": 8636,
      "curiosity": 8637,
      "46": 8638,
      "iro": 8639,
      "macy": 8640,
      "wreck": 8641,
      "represents": 8642,
      "heidi": 8643,
      "tering": 8644,
      "ternal": 8645,
      "ulty": 8646,
      "explan": 8647,
      "plum": 8648,
      "manic": 8649,
      "lson": 8650,
      "calcul": 8651,
      "transformed": 8652,
      "pursuit": 8653,
      "threaten": 8654,
      "hydr": 8655,
      "lining": 8656,
      "solved": 8657,
      "apocaly": 8658,
      "popularity": 8659,
      "cardio": 8660,
      "churches": 8661,
      "stuffed": 8662,
      "thursdays": 8663,
      "hackers": 8664,
      "achievement": 8665,
      "pitches": 8666,
      "harmful": 8667,
      "clinical": 8668,
      "hawks": 8669,
      "attractions": 8670,
      "portraits": 8671,
      "propag": 8672,
      "rebels": 8673,
      "5yearold": 8674,
      "cart": 8675,
      "dling": 8676,
      "soph": 8677,
      "reproductive": 8678,
      "orn": 8679,
      "whale": 8680,
      "unle": 8681,
      "mechan": 8682,
      "propose": 8683,
      "blended": 8684,
      "overnight": 8685,
      "gues": 8686,
      "versus": 8687,
      "forecast": 8688,
      "leslie": 8689,
      "mative": 8690,
      "denying": 8691,
      "refusing": 8692,
      "bidens": 8693,
      "emerged": 8694,
      "locations": 8695,
      "scram": 8696,
      "ariana": 8697,
      "intellect": 8698,
      "compares": 8699,
      "frustration": 8700,
      "substance": 8701,
      "bernard": 8702,
      "tornado": 8703,
      "barbecue": 8704,
      "vatican": 8705,
      "taliban": 8706,
      "jealous": 8707,
      "hers": 8708,
      "hired": 8709,
      "pir": 8710,
      "panc": 8711,
      "pages": 8712,
      "tle": 8713,
      "tiff": 8714,
      "injustice": 8715,
      "stable": 8716,
      "chains": 8717,
      "idio": 8718,
      "detained": 8719,
      "ultr": 8720,
      "agne": 8721,
      "overweight": 8722,
      "photoshop": 8723,
      "preach": 8724,
      "muhammad": 8725,
      "inclusion": 8726,
      "holder": 8727,
      "addicted": 8728,
      "shakes": 8729,
      "doug": 8730,
      "audiences": 8731,
      "stole": 8732,
      "providers": 8733,
      "enjoyed": 8734,
      "discovering": 8735,
      "haters": 8736,
      "zoe": 8737,
      "psychology": 8738,
      "mrs": 8739,
      "karl": 8740,
      "participate": 8741,
      "pleasant": 8742,
      "jacket": 8743,
      "consciousness": 8744,
      "shortage": 8745,
      "siblings": 8746,
      "delayed": 8747,
      "potatoes": 8748,
      "vigil": 8749,
      "qatar": 8750,
      "singapore": 8751,
      "autumn": 8752,
      "awe": 8753,
      "gaw": 8754,
      "hates": 8755,
      "hints": 8756,
      "lings": 8757,
      "rhy": 8758,
      "ubs": 8759,
      "recon": 8760,
      "sticks": 8761,
      "select": 8762,
      "idas": 8763,
      "adul": 8764,
      "ceos": 8765,
      "indones": 8766,
      "clash": 8767,
      "aved": 8768,
      "serena": 8769,
      "watchdog": 8770,
      "simon": 8771,
      "filing": 8772,
      "territory": 8773,
      "stayed": 8774,
      "educated": 8775,
      "2007": 8776,
      "structure": 8777,
      "owski": 8778,
      "sadness": 8779,
      "representation": 8780,
      "remaining": 8781,
      "priorities": 8782,
      "asylum": 8783,
      "swedish": 8784,
      "antitrump": 8785,
      "supplies": 8786,
      "cuisine": 8787,
      "cience": 8788,
      "kle": 8789,
      "lions": 8790,
      "nb": 8791,
      "oon": 8792,
      "oak": 8793,
      "pics": 8794,
      "inity": 8795,
      "rejects": 8796,
      "reboot": 8797,
      "hog": 8798,
      "idge": 8799,
      "adams": 8800,
      "conut": 8801,
      "poke": 8802,
      "essence": 8803,
      "essentially": 8804,
      "coconut": 8805,
      "sober": 8806,
      "manchester": 8807,
      "stran": 8808,
      "scouts": 8809,
      "sings": 8810,
      "wrapped": 8811,
      "mortal": 8812,
      "glory": 8813,
      "venice": 8814,
      "russians": 8815,
      "filming": 8816,
      "shaped": 8817,
      "bullet": 8818,
      "israels": 8819,
      "representatives": 8820,
      "linda": 8821,
      "introducing": 8822,
      "architecture": 8823,
      "collapse": 8824,
      "astronaut": 8825,
      "jacobs": 8826,
      "zimmer": 8827,
      "disgusting": 8828,
      "flaw": 8829,
      "hh": 8830,
      "mint": 8831,
      "nupt": 8832,
      "ov": 8833,
      "oas": 8834,
      "ras": 8835,
      "infamous": 8836,
      "stakes": 8837,
      "encer": 8838,
      "trials": 8839,
      "mod": 8840,
      "unarmed": 8841,
      "comparis": 8842,
      "megyn": 8843,
      "ista": 8844,
      "plann": 8845,
      "manip": 8846,
      "embass": 8847,
      "maya": 8848,
      "ishes": 8849,
      "voy": 8850,
      "poster": 8851,
      "posting": 8852,
      "regime": 8853,
      "runners": 8854,
      "blocked": 8855,
      "faction": 8856,
      "rolled": 8857,
      "impacts": 8858,
      "responding": 8859,
      "sells": 8860,
      "recognizing": 8861,
      "hospitalized": 8862,
      "equip": 8863,
      "jeffrey": 8864,
      "homelessness": 8865,
      "quarters": 8866,
      "universities": 8867,
      "franken": 8868,
      "anticipated": 8869,
      "guarantee": 8870,
      "pardon": 8871,
      "discipline": 8872,
      "tactics": 8873,
      "cigarettes": 8874,
      "phase": 8875,
      "sacrifice": 8876,
      "beneath": 8877,
      "tong": 8878,
      "inchief": 8879,
      "enight": 8880,
      "alliance": 8881,
      "ardo": 8882,
      "ision": 8883,
      "itar": 8884,
      "leap": 8885,
      "rosen": 8886,
      "abol": 8887,
      "abortions": 8888,
      "urt": 8889,
      "oped": 8890,
      "pron": 8891,
      "mana": 8892,
      "overseas": 8893,
      "crete": 8894,
      "insists": 8895,
      "kidney": 8896,
      "psons": 8897,
      "cares": 8898,
      "muscle": 8899,
      "minded": 8900,
      "engaging": 8901,
      "fashions": 8902,
      "nominations": 8903,
      "tournam": 8904,
      "cultures": 8905,
      "panther": 8906,
      "philanthro": 8907,
      "mistak": 8908,
      "koreas": 8909,
      "gordon": 8910,
      "dedic": 8911,
      "repair": 8912,
      "proposes": 8913,
      "nife": 8914,
      "blowing": 8915,
      "websites": 8916,
      "millennial": 8917,
      "trafficking": 8918,
      "assistance": 8919,
      "methods": 8920,
      "unveiled": 8921,
      "tillerson": 8922,
      "pocket": 8923,
      "delegates": 8924,
      "obstacles": 8925,
      "entitled": 8926,
      "tokyo": 8927,
      "calorie": 8928,
      "8yearold": 8929,
      "bones": 8930,
      "knife": 8931,
      "wend": 8932,
      "reception": 8933,
      "stated": 8934,
      "amb": 8935,
      "liby": 8936,
      "loser": 8937,
      "triv": 8938,
      "dee": 8939,
      "unhealthy": 8940,
      "maps": 8941,
      "ift": 8942,
      "acks": 8943,
      "brunch": 8944,
      "margin": 8945,
      "undermine": 8946,
      "carey": 8947,
      "landed": 8948,
      "testify": 8949,
      "celebrations": 8950,
      "waking": 8951,
      "nett": 8952,
      "checked": 8953,
      "badly": 8954,
      "dinners": 8955,
      "welfare": 8956,
      "coping": 8957,
      "florence": 8958,
      "strongly": 8959,
      "challenged": 8960,
      "gorsuch": 8961,
      "emerge": 8962,
      "advances": 8963,
      "performances": 8964,
      "advocacy": 8965,
      "champagne": 8966,
      "initially": 8967,
      "encouraged": 8968,
      "confessions": 8969,
      "treasure": 8970,
      "bryant": 8971,
      "strategic": 8972,
      "buffalo": 8973,
      "frontrunner": 8974,
      "huckabee": 8975,
      "cca": 8976,
      "wang": 8977,
      "xon": 8978,
      "iser": 8979,
      "icia": 8980,
      "ilit": 8981,
      "amo": 8982,
      "nots": 8983,
      "ceiling": 8984,
      "oppose": 8985,
      "brace": 8986,
      "seless": 8987,
      "mayo": 8988,
      "breach": 8989,
      "landmark": 8990,
      "bros": 8991,
      "relate": 8992,
      "simpson": 8993,
      "glas": 8994,
      "appet": 8995,
      "masks": 8996,
      "slay": 8997,
      "fireworks": 8998,
      "castle": 8999,
      "organizing": 9000,
      "triple": 9001,
      "murphy": 9002,
      "producers": 9003,
      "approaching": 9004,
      "luckily": 9005,
      "architect": 9006,
      "industrial": 9007,
      "tshirt": 9008,
      "whistle": 9009,
      "incarcer": 9010,
      "bind": 9011,
      "cers": 9012,
      "dent": 9013,
      "dirt": 9014,
      "karen": 9015,
      "kicking": 9016,
      "nurs": 9017,
      "refr": 9018,
      "hoped": 9019,
      "bobby": 9020,
      "crunch": 9021,
      "sail": 9022,
      "assass": 9023,
      "lifelong": 9024,
      "therefore": 9025,
      "lett": 9026,
      "underwater": 9027,
      "cussing": 9028,
      "yorkers": 9029,
      "borrow": 9030,
      "heartfelt": 9031,
      "ginger": 9032,
      "midnight": 9033,
      "midterm": 9034,
      "possibilities": 9035,
      "secretly": 9036,
      "snip": 9037,
      "bands": 9038,
      "placing": 9039,
      "suggesting": 9040,
      "operations": 9041,
      "lynch": 9042,
      "approaches": 9043,
      "client": 9044,
      "heavily": 9045,
      "cameras": 9046,
      "jumping": 9047,
      "amounts": 9048,
      "weighs": 9049,
      "buzzfeed": 9050,
      "blessed": 9051,
      "bloomberg": 9052,
      "virtually": 9053,
      "colored": 9054,
      "ears": 9055,
      "nash": 9056,
      "piv": 9057,
      "leban": 9058,
      "behalf": 9059,
      "aclu": 9060,
      "deter": 9061,
      "urgent": 9062,
      "fey": 9063,
      "doc": 9064,
      "ophy": 9065,
      "lakes": 9066,
      "grind": 9067,
      "attitudes": 9068,
      "iley": 9069,
      "serial": 9070,
      "warner": 9071,
      "phan": 9072,
      "camps": 9073,
      "mindset": 9074,
      "dude": 9075,
      "ballo": 9076,
      "blown": 9077,
      "classified": 9078,
      "judicial": 9079,
      "emphas": 9080,
      "momentum": 9081,
      "protesting": 9082,
      "bedtime": 9083,
      "drove": 9084,
      "southwest": 9085,
      "metap": 9086,
      "festive": 9087,
      "damaging": 9088,
      "budd": 9089,
      "shuts": 9090,
      "rallies": 9091,
      "crystal": 9092,
      "hawai": 9093,
      "pitts": 9094,
      "integrity": 9095,
      "creatures": 9096,
      "dunham": 9097,
      "sandwiches": 9098,
      "hannity": 9099,
      "julia": 9100,
      "reserve": 9101,
      "techniques": 9102,
      "lefto": 9103,
      "natalie": 9104,
      "triumph": 9105,
      "elegant": 9106,
      "sculpt": 9107,
      "70s": 9108,
      "loun": 9109,
      "uous": 9110,
      "intrig": 9111,
      "rejection": 9112,
      "atmo": 9113,
      "ales": 9114,
      "idy": 9115,
      "whites": 9116,
      "outed": 9117,
      "teaser": 9118,
      "laun": 9119,
      "cran": 9120,
      "eling": 9121,
      "discussing": 9122,
      "aven": 9123,
      "lowincome": 9124,
      "firms": 9125,
      "guided": 9126,
      "insider": 9127,
      "goods": 9128,
      "signing": 9129,
      "supermodel": 9130,
      "qualities": 9131,
      "employers": 9132,
      "elsewhere": 9133,
      "artistic": 9134,
      "devil": 9135,
      "crop": 9136,
      "awardwinning": 9137,
      "brighten": 9138,
      "license": 9139,
      "gowns": 9140,
      "fundraising": 9141,
      "dilemma": 9142,
      "ela": 9143,
      "gon": 9144,
      "sip": 9145,
      "thur": 9146,
      "isms": 9147,
      "abused": 9148,
      "peters": 9149,
      "commemor": 9150,
      "artific": 9151,
      "shade": 9152,
      "oking": 9153,
      "perception": 9154,
      "saves": 9155,
      "derail": 9156,
      "bergs": 9157,
      "preview": 9158,
      "backpack": 9159,
      "carl": 9160,
      "famed": 9161,
      "happiest": 9162,
      "skirt": 9163,
      "farright": 9164,
      "delays": 9165,
      "stormy": 9166,
      "questioning": 9167,
      "naom": 9168,
      "garbage": 9169,
      "execution": 9170,
      "examples": 9171,
      "elses": 9172,
      "improvement": 9173,
      "episodes": 9174,
      "functional": 9175,
      "substant": 9176,
      "brazilian": 9177,
      "monolo": 9178,
      "supremacists": 9179,
      "conviction": 9180,
      "ignorance": 9181,
      "rapidly": 9182,
      "comprehensive": 9183,
      "bankruptcy": 9184,
      "pediatric": 9185,
      "jeremy": 9186,
      "intervention": 9187,
      "ego": 9188,
      "gic": 9189,
      "mack": 9190,
      "rational": 9191,
      "sizes": 9192,
      "xim": 9193,
      "ern": 9194,
      "stunt": 9195,
      "seaf": 9196,
[...]
